{
    "__UNK__": 0,
    "__PAD__": 1,
    "!": 2,
    "\"": 3,
    "#": 4,
    "$": 5,
    "%": 6,
    "&": 7,
    "'": 8,
    "(": 9,
    ")": 10,
    "*": 11,
    "+": 12,
    ",": 13,
    "-": 14,
    ".": 15,
    "/": 16,
    "0": 17,
    "1": 18,
    "2": 19,
    "3": 20,
    "4": 21,
    "5": 22,
    "6": 23,
    "7": 24,
    "8": 25,
    "9": 26,
    ":": 27,
    ";": 28,
    "<": 29,
    "=": 30,
    ">": 31,
    "?": 32,
    "@": 33,
    "[": 34,
    "\\": 35,
    "]": 36,
    "^": 37,
    "_": 38,
    "`": 39,
    "a": 40,
    "b": 41,
    "c": 42,
    "d": 43,
    "e": 44,
    "f": 45,
    "g": 46,
    "h": 47,
    "i": 48,
    "j": 49,
    "k": 50,
    "l": 51,
    "m": 52,
    "n": 53,
    "o": 54,
    "p": 55,
    "q": 56,
    "r": 57,
    "s": 58,
    "t": 59,
    "u": 60,
    "v": 61,
    "w": 62,
    "x": 63,
    "y": 64,
    "z": 65,
    "|": 66,
    "~": 67,
    "£": 68,
    "¥": 69,
    "§": 70,
    "®": 71,
    "°": 72,
    "±": 73,
    "µ": 74,
    "·": 75,
    "º": 76,
    "×": 77,
    "à": 78,
    "á": 79,
    "â": 80,
    "ã": 81,
    "ä": 82,
    "å": 83,
    "æ": 84,
    "ç": 85,
    "è": 86,
    "é": 87,
    "ê": 88,
    "ë": 89,
    "ì": 90,
    "í": 91,
    "î": 92,
    "ï": 93,
    "ð": 94,
    "ñ": 95,
    "ò": 96,
    "ó": 97,
    "ô": 98,
    "õ": 99,
    "ö": 100,
    "ø": 101,
    "ù": 102,
    "ú": 103,
    "û": 104,
    "ü": 105,
    "ý": 106,
    "þ": 107,
    "ā": 108,
    "ă": 109,
    "ą": 110,
    "ć": 111,
    "č": 112,
    "đ": 113,
    "ē": 114,
    "ě": 115,
    "ğ": 116,
    "ī": 117,
    "ĭ": 118,
    "ı": 119,
    "ł": 120,
    "ń": 121,
    "ō": 122,
    "ŏ": 123,
    "ő": 124,
    "ř": 125,
    "ś": 126,
    "ş": 127,
    "š": 128,
    "ũ": 129,
    "ū": 130,
    "ŭ": 131,
    "ů": 132,
    "ž": 133,
    "ơ": 134,
    "ư": 135,
    "ǎ": 136,
    "ǐ": 137,
    "ǒ": 138,
    "ǔ": 139,
    "ǫ": 140,
    "ǽ": 141,
    "ț": 142,
    "ɾ": 143,
    "˚": 144,
    "̇": 145,
    "α": 146,
    "β": 147,
    "γ": 148,
    "δ": 149,
    "θ": 150,
    "λ": 151,
    "μ": 152,
    "ο": 153,
    "π": 154,
    "τ": 155,
    "ω": 156,
    "а": 157,
    "й": 158,
    "к": 159,
    "м": 160,
    "н": 161,
    "о": 162,
    "р": 163,
    "с": 164,
    "т": 165,
    "э": 166,
    "ё": 167,
    "қ": 168,
    "ᅥ": 169,
    "ᆪ": 170,
    "ᝧ": 171,
    "ḫ": 172,
    "ṇ": 173,
    "ṣ": 174,
    "ạ": 175,
    "ả": 176,
    "ầ": 177,
    "ậ": 178,
    "ặ": 179,
    "ẻ": 180,
    "ễ": 181,
    "ị": 182,
    "ọ": 183,
    "ỏ": 184,
    "ố": 185,
    "ồ": 186,
    "ổ": 187,
    "ỗ": 188,
    "ộ": 189,
    "ớ": 190,
    "ờ": 191,
    "ợ": 192,
    "ủ": 193,
    "ứ": 194,
    "ừ": 195,
    "ỳ": 196,
    "ỹ": 197,
    "₩": 198,
    "€": 199,
    "⃗": 200,
    "℃": 201,
    "℉": 202,
    "ℓ": 203,
    "™": 204,
    "⅓": 205,
    "⅔": 206,
    "ⅰ": 207,
    "ⅱ": 208,
    "ⅲ": 209,
    "ⅳ": 210,
    "ⅴ": 211,
    "ⅵ": 212,
    "ⅸ": 213,
    "ⅹ": 214,
    "≡": 215,
    "①": 216,
    "②": 217,
    "③": 218,
    "④": 219,
    "⑤": 220,
    "⑥": 221,
    "⑦": 222,
    "⑧": 223,
    "⑯": 224,
    "ⓧ": 225,
    "■": 226,
    "△": 227,
    "☎": 228,
    "♡": 229,
    "➂": 230,
    "➋": 231,
    "➌": 232,
    "➍": 233,
    "➎": 234,
    "➏": 235,
    "⼐": 236,
    "〇": 237,
    "あ": 238,
    "い": 239,
    "う": 240,
    "お": 241,
    "か": 242,
    "き": 243,
    "さ": 244,
    "し": 245,
    "つ": 246,
    "で": 247,
    "な": 248,
    "の": 249,
    "は": 250,
    "ぴ": 251,
    "ま": 252,
    "め": 253,
    "も": 254,
    "り": 255,
    "ろ": 256,
    "ん": 257,
    "ㄱ": 258,
    "ㄴ": 259,
    "ㄷ": 260,
    "ㄹ": 261,
    "ㅁ": 262,
    "ㅅ": 263,
    "ㅆ": 264,
    "ㅇ": 265,
    "ㅈ": 266,
    "ㅏ": 267,
    "ㅔ": 268,
    "ㅠ": 269,
    "ㅡ": 270,
    "㉦": 271,
    "㎍": 272,
    "㎛": 273,
    "一": 274,
    "丁": 275,
    "七": 276,
    "万": 277,
    "丈": 278,
    "三": 279,
    "上": 280,
    "下": 281,
    "不": 282,
    "与": 283,
    "丐": 284,
    "世": 285,
    "丘": 286,
    "丙": 287,
    "中": 288,
    "丸": 289,
    "丹": 290,
    "主": 291,
    "丽": 292,
    "乃": 293,
    "久": 294,
    "义": 295,
    "之": 296,
    "乌": 297,
    "乐": 298,
    "乙": 299,
    "九": 300,
    "乞": 301,
    "习": 302,
    "乡": 303,
    "书": 304,
    "乳": 305,
    "亂": 306,
    "了": 307,
    "事": 308,
    "二": 309,
    "云": 310,
    "互": 311,
    "五": 312,
    "井": 313,
    "亘": 314,
    "亞": 315,
    "亡": 316,
    "亢": 317,
    "交": 318,
    "亥": 319,
    "亦": 320,
    "亨": 321,
    "享": 322,
    "京": 323,
    "亭": 324,
    "亮": 325,
    "人": 326,
    "仁": 327,
    "今": 328,
    "介": 329,
    "从": 330,
    "他": 331,
    "付": 332,
    "仙": 333,
    "代": 334,
    "令": 335,
    "以": 336,
    "仲": 337,
    "任": 338,
    "份": 339,
    "企": 340,
    "伉": 341,
    "伊": 342,
    "伏": 343,
    "休": 344,
    "会": 345,
    "伯": 346,
    "伸": 347,
    "似": 348,
    "位": 349,
    "低": 350,
    "住": 351,
    "佐": 352,
    "佑": 353,
    "佛": 354,
    "作": 355,
    "佳": 356,
    "使": 357,
    "來": 358,
    "例": 359,
    "供": 360,
    "依": 361,
    "侯": 362,
    "侵": 363,
    "俉": 364,
    "俊": 365,
    "俗": 366,
    "保": 367,
    "信": 368,
    "修": 369,
    "俯": 370,
    "俱": 371,
    "俵": 372,
    "倂": 373,
    "倉": 374,
    "倍": 375,
    "們": 376,
    "倒": 377,
    "候": 378,
    "倚": 379,
    "借": 380,
    "倡": 381,
    "倦": 382,
    "倪": 383,
    "倫": 384,
    "假": 385,
    "偉": 386,
    "停": 387,
    "健": 388,
    "側": 389,
    "偶": 390,
    "傅": 391,
    "傘": 392,
    "備": 393,
    "傲": 394,
    "傳": 395,
    "傷": 396,
    "僊": 397,
    "像": 398,
    "僑": 399,
    "僕": 400,
    "僞": 401,
    "僧": 402,
    "價": 403,
    "儀": 404,
    "儂": 405,
    "儒": 406,
    "償": 407,
    "儷": 408,
    "儿": 409,
    "允": 410,
    "元": 411,
    "兄": 412,
    "充": 413,
    "兆": 414,
    "先": 415,
    "光": 416,
    "克": 417,
    "免": 418,
    "兎": 419,
    "兒": 420,
    "兔": 421,
    "入": 422,
    "內": 423,
    "全": 424,
    "兩": 425,
    "八": 426,
    "公": 427,
    "六": 428,
    "共": 429,
    "兵": 430,
    "具": 431,
    "典": 432,
    "冀": 433,
    "冂": 434,
    "内": 435,
    "円": 436,
    "冊": 437,
    "再": 438,
    "冒": 439,
    "军": 440,
    "冬": 441,
    "冯": 442,
    "冶": 443,
    "凍": 444,
    "凡": 445,
    "凤": 446,
    "凰": 447,
    "凱": 448,
    "凸": 449,
    "凹": 450,
    "出": 451,
    "刀": 452,
    "分": 453,
    "刊": 454,
    "刑": 455,
    "列": 456,
    "刚": 457,
    "创": 458,
    "初": 459,
    "別": 460,
    "利": 461,
    "制": 462,
    "刻": 463,
    "則": 464,
    "剋": 465,
    "前": 466,
    "剛": 467,
    "剣": 468,
    "剧": 469,
    "副": 470,
    "割": 471,
    "創": 472,
    "劃": 473,
    "劇": 474,
    "劉": 475,
    "劍": 476,
    "力": 477,
    "功": 478,
    "加": 479,
    "动": 480,
    "助": 481,
    "励": 482,
    "勅": 483,
    "勇": 484,
    "勒": 485,
    "動": 486,
    "務": 487,
    "勝": 488,
    "勞": 489,
    "勢": 490,
    "勸": 491,
    "勿": 492,
    "化": 493,
    "北": 494,
    "匠": 495,
    "匡": 496,
    "匯": 497,
    "區": 498,
    "十": 499,
    "千": 500,
    "升": 501,
    "午": 502,
    "卉": 503,
    "半": 504,
    "卍": 505,
    "华": 506,
    "協": 507,
    "单": 508,
    "南": 509,
    "博": 510,
    "占": 511,
    "卯": 512,
    "印": 513,
    "危": 514,
    "却": 515,
    "卵": 516,
    "厚": 517,
    "原": 518,
    "去": 519,
    "參": 520,
    "友": 521,
    "反": 522,
    "取": 523,
    "受": 524,
    "叢": 525,
    "口": 526,
    "古": 527,
    "句": 528,
    "可": 529,
    "台": 530,
    "史": 531,
    "右": 532,
    "司": 533,
    "各": 534,
    "合": 535,
    "吉": 536,
    "同": 537,
    "名": 538,
    "向": 539,
    "君": 540,
    "吟": 541,
    "否": 542,
    "吧": 543,
    "吳": 544,
    "吴": 545,
    "吾": 546,
    "呂": 547,
    "告": 548,
    "周": 549,
    "味": 550,
    "呼": 551,
    "命": 552,
    "和": 553,
    "哀": 554,
    "品": 555,
    "哈": 556,
    "員": 557,
    "哭": 558,
    "哲": 559,
    "唐": 560,
    "唱": 561,
    "商": 562,
    "問": 563,
    "啞": 564,
    "善": 565,
    "喆": 566,
    "喘": 567,
    "喜": 568,
    "喪": 569,
    "單": 570,
    "嘉": 571,
    "器": 572,
    "噴": 573,
    "嚴": 574,
    "囑": 575,
    "囚": 576,
    "四": 577,
    "回": 578,
    "因": 579,
    "固": 580,
    "國": 581,
    "圍": 582,
    "園": 583,
    "圓": 584,
    "圖": 585,
    "團": 586,
    "土": 587,
    "在": 588,
    "地": 589,
    "圳": 590,
    "坂": 591,
    "坐": 592,
    "坤": 593,
    "型": 594,
    "垠": 595,
    "城": 596,
    "域": 597,
    "執": 598,
    "基": 599,
    "埼": 600,
    "堀": 601,
    "堂": 602,
    "堅": 603,
    "堡": 604,
    "堤": 605,
    "堯": 606,
    "報": 607,
    "場": 608,
    "塑": 609,
    "塔": 610,
    "塞": 611,
    "塼": 612,
    "境": 613,
    "墓": 614,
    "墳": 615,
    "壁": 616,
    "壇": 617,
    "壓": 618,
    "壞": 619,
    "士": 620,
    "壬": 621,
    "声": 622,
    "壺": 623,
    "壽": 624,
    "夏": 625,
    "夕": 626,
    "外": 627,
    "多": 628,
    "夜": 629,
    "夢": 630,
    "大": 631,
    "天": 632,
    "太": 633,
    "夫": 634,
    "失": 635,
    "夷": 636,
    "夾": 637,
    "奄": 638,
    "奇": 639,
    "奈": 640,
    "奎": 641,
    "契": 642,
    "奠": 643,
    "奬": 644,
    "奭": 645,
    "女": 646,
    "奸": 647,
    "好": 648,
    "如": 649,
    "妃": 650,
    "妊": 651,
    "妓": 652,
    "妖": 653,
    "妻": 654,
    "妾": 655,
    "始": 656,
    "姑": 657,
    "姓": 658,
    "委": 659,
    "姙": 660,
    "姦": 661,
    "姬": 662,
    "姮": 663,
    "威": 664,
    "娛": 665,
    "娥": 666,
    "娱": 667,
    "婆": 668,
    "婚": 669,
    "婢": 670,
    "婦": 671,
    "媒": 672,
    "媛": 673,
    "媤": 674,
    "嫌": 675,
    "嫦": 676,
    "嬰": 677,
    "子": 678,
    "孔": 679,
    "字": 680,
    "存": 681,
    "孝": 682,
    "孟": 683,
    "孤": 684,
    "学": 685,
    "孫": 686,
    "學": 687,
    "宅": 688,
    "宇": 689,
    "守": 690,
    "安": 691,
    "宋": 692,
    "宏": 693,
    "宖": 694,
    "宗": 695,
    "官": 696,
    "宙": 697,
    "定": 698,
    "宜": 699,
    "客": 700,
    "室": 701,
    "宮": 702,
    "害": 703,
    "宴": 704,
    "家": 705,
    "宿": 706,
    "寃": 707,
    "寄": 708,
    "寅": 709,
    "密": 710,
    "富": 711,
    "寒": 712,
    "察": 713,
    "寡": 714,
    "實": 715,
    "寧": 716,
    "審": 717,
    "寬": 718,
    "寶": 719,
    "寸": 720,
    "对": 721,
    "寺": 722,
    "封": 723,
    "射": 724,
    "將": 725,
    "專": 726,
    "尊": 727,
    "尋": 728,
    "對": 729,
    "導": 730,
    "小": 731,
    "少": 732,
    "尙": 733,
    "尚": 734,
    "尤": 735,
    "就": 736,
    "尹": 737,
    "尺": 738,
    "尾": 739,
    "尿": 740,
    "局": 741,
    "居": 742,
    "屈": 743,
    "屋": 744,
    "屍": 745,
    "屑": 746,
    "展": 747,
    "屛": 748,
    "層": 749,
    "屬": 750,
    "山": 751,
    "岐": 752,
    "岑": 753,
    "岡": 754,
    "岩": 755,
    "岳": 756,
    "岸": 757,
    "峙": 758,
    "峨": 759,
    "峯": 760,
    "峰": 761,
    "峴": 762,
    "島": 763,
    "崇": 764,
    "崎": 765,
    "崔": 766,
    "崛": 767,
    "嶺": 768,
    "巖": 769,
    "川": 770,
    "州": 771,
    "巡": 772,
    "工": 773,
    "巧": 774,
    "巨": 775,
    "差": 776,
    "己": 777,
    "巳": 778,
    "巴": 779,
    "巷": 780,
    "市": 781,
    "希": 782,
    "帖": 783,
    "帝": 784,
    "帥": 785,
    "師": 786,
    "席": 787,
    "帶": 788,
    "常": 789,
    "幅": 790,
    "幣": 791,
    "干": 792,
    "平": 793,
    "年": 794,
    "幸": 795,
    "幻": 796,
    "幼": 797,
    "广": 798,
    "庄": 799,
    "庇": 800,
    "床": 801,
    "序": 802,
    "店": 803,
    "府": 804,
    "度": 805,
    "座": 806,
    "庫": 807,
    "庭": 808,
    "庶": 809,
    "康": 810,
    "庸": 811,
    "廈": 812,
    "廛": 813,
    "廟": 814,
    "廢": 815,
    "廣": 816,
    "廬": 817,
    "廳": 818,
    "延": 819,
    "廷": 820,
    "建": 821,
    "开": 822,
    "弁": 823,
    "弊": 824,
    "式": 825,
    "弓": 826,
    "弔": 827,
    "引": 828,
    "弘": 829,
    "弟": 830,
    "张": 831,
    "弱": 832,
    "張": 833,
    "强": 834,
    "弼": 835,
    "彈": 836,
    "彌": 837,
    "形": 838,
    "彦": 839,
    "彫": 840,
    "彬": 841,
    "彭": 842,
    "彰": 843,
    "影": 844,
    "役": 845,
    "彼": 846,
    "往": 847,
    "征": 848,
    "待": 849,
    "律": 850,
    "後": 851,
    "徐": 852,
    "徒": 853,
    "得": 854,
    "徙": 855,
    "從": 856,
    "御": 857,
    "復": 858,
    "微": 859,
    "徵": 860,
    "德": 861,
    "徽": 862,
    "心": 863,
    "必": 864,
    "忆": 865,
    "忌": 866,
    "忍": 867,
    "忖": 868,
    "志": 869,
    "忘": 870,
    "忠": 871,
    "快": 872,
    "怀": 873,
    "思": 874,
    "怡": 875,
    "急": 876,
    "性": 877,
    "怨": 878,
    "总": 879,
    "恋": 880,
    "恐": 881,
    "恒": 882,
    "恥": 883,
    "恨": 884,
    "恩": 885,
    "恭": 886,
    "息": 887,
    "悌": 888,
    "悟": 889,
    "悠": 890,
    "患": 891,
    "悲": 892,
    "悸": 893,
    "情": 894,
    "惠": 895,
    "惡": 896,
    "想": 897,
    "意": 898,
    "愚": 899,
    "愛": 900,
    "感": 901,
    "慈": 902,
    "慕": 903,
    "慧": 904,
    "慨": 905,
    "慮": 906,
    "慵": 907,
    "慶": 908,
    "慷": 909,
    "憂": 910,
    "憑": 911,
    "憤": 912,
    "憲": 913,
    "憾": 914,
    "應": 915,
    "懲": 916,
    "懷": 917,
    "懿": 918,
    "戀": 919,
    "戊": 920,
    "戌": 921,
    "成": 922,
    "我": 923,
    "戒": 924,
    "战": 925,
    "戟": 926,
    "戰": 927,
    "戴": 928,
    "戶": 929,
    "戸": 930,
    "房": 931,
    "所": 932,
    "手": 933,
    "才": 934,
    "扬": 935,
    "扶": 936,
    "承": 937,
    "技": 938,
    "抑": 939,
    "投": 940,
    "折": 941,
    "报": 942,
    "抹": 943,
    "抽": 944,
    "拉": 945,
    "拍": 946,
    "拔": 947,
    "拳": 948,
    "拿": 949,
    "指": 950,
    "挑": 951,
    "振": 952,
    "捐": 953,
    "捨": 954,
    "捷": 955,
    "授": 956,
    "掌": 957,
    "接": 958,
    "推": 959,
    "揚": 960,
    "換": 961,
    "揭": 962,
    "損": 963,
    "搜": 964,
    "携": 965,
    "摩": 966,
    "播": 967,
    "撲": 968,
    "擇": 969,
    "據": 970,
    "攘": 971,
    "攝": 972,
    "支": 973,
    "收": 974,
    "改": 975,
    "攻": 976,
    "放": 977,
    "政": 978,
    "故": 979,
    "效": 980,
    "敎": 981,
    "敏": 982,
    "救": 983,
    "敗": 984,
    "教": 985,
    "敞": 986,
    "散": 987,
    "敦": 988,
    "敬": 989,
    "整": 990,
    "敵": 991,
    "敷": 992,
    "數": 993,
    "文": 994,
    "斌": 995,
    "斑": 996,
    "斗": 997,
    "料": 998,
    "斥": 999,
    "斬": 1000,
    "新": 1001,
    "斷": 1002,
    "方": 1003,
    "於": 1004,
    "施": 1005,
    "旅": 1006,
    "旋": 1007,
    "族": 1008,
    "旗": 1009,
    "旣": 1010,
    "日": 1011,
    "旦": 1012,
    "旨": 1013,
    "早": 1014,
    "旬": 1015,
    "旭": 1016,
    "时": 1017,
    "旺": 1018,
    "昇": 1019,
    "昌": 1020,
    "明": 1021,
    "易": 1022,
    "星": 1023,
    "春": 1024,
    "昨": 1025,
    "昭": 1026,
    "是": 1027,
    "显": 1028,
    "時": 1029,
    "晃": 1030,
    "晉": 1031,
    "晋": 1032,
    "晚": 1033,
    "晝": 1034,
    "晦": 1035,
    "晨": 1036,
    "晩": 1037,
    "景": 1038,
    "晶": 1039,
    "智": 1040,
    "暑": 1041,
    "暖": 1042,
    "暗": 1043,
    "暴": 1044,
    "曉": 1045,
    "曲": 1046,
    "書": 1047,
    "曹": 1048,
    "曺": 1049,
    "曾": 1050,
    "最": 1051,
    "會": 1052,
    "月": 1053,
    "有": 1054,
    "朋": 1055,
    "服": 1056,
    "朗": 1057,
    "望": 1058,
    "朝": 1059,
    "期": 1060,
    "木": 1061,
    "未": 1062,
    "末": 1063,
    "本": 1064,
    "札": 1065,
    "朱": 1066,
    "朴": 1067,
    "杆": 1068,
    "杉": 1069,
    "李": 1070,
    "杏": 1071,
    "材": 1072,
    "村": 1073,
    "杖": 1074,
    "杞": 1075,
    "来": 1076,
    "杨": 1077,
    "杭": 1078,
    "杯": 1079,
    "杰": 1080,
    "東": 1081,
    "松": 1082,
    "板": 1083,
    "极": 1084,
    "林": 1085,
    "果": 1086,
    "枯": 1087,
    "柄": 1088,
    "某": 1089,
    "柑": 1090,
    "染": 1091,
    "柔": 1092,
    "查": 1093,
    "柯": 1094,
    "柳": 1095,
    "査": 1096,
    "栗": 1097,
    "校": 1098,
    "株": 1099,
    "核": 1100,
    "根": 1101,
    "格": 1102,
    "桃": 1103,
    "案": 1104,
    "桓": 1105,
    "桶": 1106,
    "梁": 1107,
    "梅": 1108,
    "梓": 1109,
    "梵": 1110,
    "棄": 1111,
    "棋": 1112,
    "棍": 1113,
    "棒": 1114,
    "棘": 1115,
    "棟": 1116,
    "森": 1117,
    "棺": 1118,
    "植": 1119,
    "椒": 1120,
    "楊": 1121,
    "楚": 1122,
    "楡": 1123,
    "業": 1124,
    "極": 1125,
    "榜": 1126,
    "榮": 1127,
    "構": 1128,
    "槨": 1129,
    "槪": 1130,
    "槽": 1131,
    "槿": 1132,
    "樂": 1133,
    "樓": 1134,
    "模": 1135,
    "樸": 1136,
    "樹": 1137,
    "橋": 1138,
    "機": 1139,
    "橫": 1140,
    "檜": 1141,
    "檢": 1142,
    "欄": 1143,
    "權": 1144,
    "次": 1145,
    "欣": 1146,
    "欧": 1147,
    "欲": 1148,
    "款": 1149,
    "歌": 1150,
    "歐": 1151,
    "止": 1152,
    "正": 1153,
    "此": 1154,
    "武": 1155,
    "歲": 1156,
    "歷": 1157,
    "歸": 1158,
    "死": 1159,
    "殉": 1160,
    "殊": 1161,
    "殞": 1162,
    "殯": 1163,
    "殲": 1164,
    "殺": 1165,
    "殿": 1166,
    "毁": 1167,
    "毅": 1168,
    "母": 1169,
    "毒": 1170,
    "比": 1171,
    "毖": 1172,
    "毛": 1173,
    "氏": 1174,
    "民": 1175,
    "氓": 1176,
    "氣": 1177,
    "水": 1178,
    "氷": 1179,
    "永": 1180,
    "汀": 1181,
    "汁": 1182,
    "求": 1183,
    "汇": 1184,
    "汉": 1185,
    "汎": 1186,
    "汚": 1187,
    "汝": 1188,
    "江": 1189,
    "池": 1190,
    "汨": 1191,
    "決": 1192,
    "汽": 1193,
    "沈": 1194,
    "沒": 1195,
    "沖": 1196,
    "沙": 1197,
    "沫": 1198,
    "河": 1199,
    "油": 1200,
    "治": 1201,
    "沼": 1202,
    "況": 1203,
    "泉": 1204,
    "法": 1205,
    "泡": 1206,
    "波": 1207,
    "泣": 1208,
    "泥": 1209,
    "注": 1210,
    "泰": 1211,
    "洁": 1212,
    "洋": 1213,
    "洗": 1214,
    "洛": 1215,
    "洞": 1216,
    "津": 1217,
    "洪": 1218,
    "洲": 1219,
    "活": 1220,
    "派": 1221,
    "流": 1222,
    "浙": 1223,
    "浚": 1224,
    "浦": 1225,
    "浩": 1226,
    "浪": 1227,
    "浮": 1228,
    "浴": 1229,
    "海": 1230,
    "涉": 1231,
    "淀": 1232,
    "淑": 1233,
    "淡": 1234,
    "淨": 1235,
    "淫": 1236,
    "深": 1237,
    "淳": 1238,
    "淵": 1239,
    "淸": 1240,
    "淹": 1241,
    "淺": 1242,
    "渡": 1243,
    "港": 1244,
    "渴": 1245,
    "渾": 1246,
    "湃": 1247,
    "湄": 1248,
    "湖": 1249,
    "湘": 1250,
    "湯": 1251,
    "源": 1252,
    "溜": 1253,
    "溝": 1254,
    "溪": 1255,
    "溫": 1256,
    "滅": 1257,
    "滋": 1258,
    "滑": 1259,
    "滓": 1260,
    "滬": 1261,
    "滯": 1262,
    "滴": 1263,
    "滿": 1264,
    "漁": 1265,
    "漏": 1266,
    "演": 1267,
    "漠": 1268,
    "漢": 1269,
    "漫": 1270,
    "潔": 1271,
    "潘": 1272,
    "潭": 1273,
    "潮": 1274,
    "澄": 1275,
    "澎": 1276,
    "澜": 1277,
    "澤": 1278,
    "澳": 1279,
    "濂": 1280,
    "濟": 1281,
    "濤": 1282,
    "濱": 1283,
    "濾": 1284,
    "瀉": 1285,
    "瀋": 1286,
    "瀑": 1287,
    "瀟": 1288,
    "瀨": 1289,
    "瀼": 1290,
    "瀾": 1291,
    "灣": 1292,
    "火": 1293,
    "灰": 1294,
    "災": 1295,
    "炎": 1296,
    "炫": 1297,
    "炭": 1298,
    "炳": 1299,
    "烈": 1300,
    "烹": 1301,
    "無": 1302,
    "然": 1303,
    "煙": 1304,
    "照": 1305,
    "煽": 1306,
    "熊": 1307,
    "熙": 1308,
    "熟": 1309,
    "熱": 1310,
    "燃": 1311,
    "燈": 1312,
    "燒": 1313,
    "營": 1314,
    "爐": 1315,
    "爭": 1316,
    "爱": 1317,
    "爲": 1318,
    "父": 1319,
    "爽": 1320,
    "爾": 1321,
    "片": 1322,
    "版": 1323,
    "牌": 1324,
    "牙": 1325,
    "牛": 1326,
    "牡": 1327,
    "牧": 1328,
    "物": 1329,
    "特": 1330,
    "犀": 1331,
    "犬": 1332,
    "犯": 1333,
    "狀": 1334,
    "狐": 1335,
    "狗": 1336,
    "狩": 1337,
    "独": 1338,
    "猫": 1339,
    "獄": 1340,
    "獅": 1341,
    "獎": 1342,
    "獨": 1343,
    "獵": 1344,
    "獸": 1345,
    "獻": 1346,
    "玄": 1347,
    "玆": 1348,
    "玉": 1349,
    "王": 1350,
    "玗": 1351,
    "玩": 1352,
    "环": 1353,
    "玲": 1354,
    "玹": 1355,
    "珍": 1356,
    "珠": 1357,
    "班": 1358,
    "現": 1359,
    "球": 1360,
    "理": 1361,
    "琴": 1362,
    "琿": 1363,
    "瑞": 1364,
    "璐": 1365,
    "環": 1366,
    "瓚": 1367,
    "甘": 1368,
    "生": 1369,
    "産": 1370,
    "用": 1371,
    "田": 1372,
    "由": 1373,
    "甲": 1374,
    "申": 1375,
    "电": 1376,
    "男": 1377,
    "町": 1378,
    "界": 1379,
    "留": 1380,
    "畜": 1381,
    "畢": 1382,
    "略": 1383,
    "番": 1384,
    "異": 1385,
    "畵": 1386,
    "當": 1387,
    "畿": 1388,
    "疆": 1389,
    "疎": 1390,
    "疏": 1391,
    "疑": 1392,
    "病": 1393,
    "症": 1394,
    "痔": 1395,
    "痕": 1396,
    "痛": 1397,
    "痰": 1398,
    "瘀": 1399,
    "癒": 1400,
    "癸": 1401,
    "發": 1402,
    "白": 1403,
    "百": 1404,
    "的": 1405,
    "皇": 1406,
    "皮": 1407,
    "盃": 1408,
    "盆": 1409,
    "益": 1410,
    "盛": 1411,
    "盜": 1412,
    "盡": 1413,
    "監": 1414,
    "盧": 1415,
    "目": 1416,
    "直": 1417,
    "相": 1418,
    "省": 1419,
    "眉": 1420,
    "眞": 1421,
    "真": 1422,
    "眼": 1423,
    "着": 1424,
    "睛": 1425,
    "督": 1426,
    "睦": 1427,
    "瞰": 1428,
    "矢": 1429,
    "矣": 1430,
    "知": 1431,
    "短": 1432,
    "石": 1433,
    "砂": 1434,
    "砦": 1435,
    "砲": 1436,
    "破": 1437,
    "硅": 1438,
    "硐": 1439,
    "硬": 1440,
    "碁": 1441,
    "碍": 1442,
    "碎": 1443,
    "碑": 1444,
    "確": 1445,
    "磬": 1446,
    "示": 1447,
    "社": 1448,
    "祇": 1449,
    "祐": 1450,
    "祖": 1451,
    "祝": 1452,
    "神": 1453,
    "祠": 1454,
    "祥": 1455,
    "票": 1456,
    "祭": 1457,
    "禁": 1458,
    "禍": 1459,
    "禎": 1460,
    "福": 1461,
    "禧": 1462,
    "禪": 1463,
    "禮": 1464,
    "禹": 1465,
    "秀": 1466,
    "私": 1467,
    "秋": 1468,
    "科": 1469,
    "秒": 1470,
    "秘": 1471,
    "秦": 1472,
    "秩": 1473,
    "移": 1474,
    "稀": 1475,
    "稅": 1476,
    "程": 1477,
    "稚": 1478,
    "種": 1479,
    "稷": 1480,
    "稼": 1481,
    "稿": 1482,
    "穀": 1483,
    "穆": 1484,
    "積": 1485,
    "穎": 1486,
    "穩": 1487,
    "穴": 1488,
    "空": 1489,
    "窓": 1490,
    "窮": 1491,
    "窯": 1492,
    "立": 1493,
    "竝": 1494,
    "章": 1495,
    "童": 1496,
    "端": 1497,
    "竹": 1498,
    "笑": 1499,
    "笠": 1500,
    "第": 1501,
    "筆": 1502,
    "等": 1503,
    "筑": 1504,
    "筒": 1505,
    "答": 1506,
    "策": 1507,
    "算": 1508,
    "管": 1509,
    "節": 1510,
    "範": 1511,
    "築": 1512,
    "篠": 1513,
    "篪": 1514,
    "簡": 1515,
    "簿": 1516,
    "籍": 1517,
    "米": 1518,
    "粉": 1519,
    "粗": 1520,
    "精": 1521,
    "糖": 1522,
    "糞": 1523,
    "系": 1524,
    "紀": 1525,
    "約": 1526,
    "紅": 1527,
    "紋": 1528,
    "納": 1529,
    "純": 1530,
    "紙": 1531,
    "素": 1532,
    "紫": 1533,
    "細": 1534,
    "終": 1535,
    "組": 1536,
    "結": 1537,
    "絞": 1538,
    "給": 1539,
    "統": 1540,
    "經": 1541,
    "綠": 1542,
    "綬": 1543,
    "維": 1544,
    "綱": 1545,
    "網": 1546,
    "綿": 1547,
    "線": 1548,
    "緝": 1549,
    "締": 1550,
    "緣": 1551,
    "編": 1552,
    "縣": 1553,
    "總": 1554,
    "績": 1555,
    "繁": 1556,
    "繩": 1557,
    "繼": 1558,
    "續": 1559,
    "红": 1560,
    "经": 1561,
    "缺": 1562,
    "网": 1563,
    "置": 1564,
    "罰": 1565,
    "署": 1566,
    "羅": 1567,
    "羊": 1568,
    "美": 1569,
    "羞": 1570,
    "群": 1571,
    "義": 1572,
    "羽": 1573,
    "翎": 1574,
    "習": 1575,
    "翔": 1576,
    "翠": 1577,
    "翡": 1578,
    "翼": 1579,
    "耀": 1580,
    "老": 1581,
    "考": 1582,
    "者": 1583,
    "耆": 1584,
    "而": 1585,
    "耐": 1586,
    "耕": 1587,
    "耳": 1588,
    "耶": 1589,
    "耿": 1590,
    "聖": 1591,
    "聚": 1592,
    "聞": 1593,
    "聯": 1594,
    "聰": 1595,
    "聲": 1596,
    "職": 1597,
    "聽": 1598,
    "聾": 1599,
    "肅": 1600,
    "肉": 1601,
    "肝": 1602,
    "股": 1603,
    "肥": 1604,
    "肩": 1605,
    "育": 1606,
    "肺": 1607,
    "胃": 1608,
    "背": 1609,
    "胎": 1610,
    "胞": 1611,
    "胡": 1612,
    "能": 1613,
    "脇": 1614,
    "脈": 1615,
    "脚": 1616,
    "脫": 1617,
    "腔": 1618,
    "腸": 1619,
    "膀": 1620,
    "膜": 1621,
    "膝": 1622,
    "膵": 1623,
    "膽": 1624,
    "臆": 1625,
    "臣": 1626,
    "臨": 1627,
    "自": 1628,
    "臭": 1629,
    "至": 1630,
    "致": 1631,
    "臺": 1632,
    "與": 1633,
    "興": 1634,
    "舊": 1635,
    "舌": 1636,
    "舍": 1637,
    "舞": 1638,
    "舟": 1639,
    "航": 1640,
    "舰": 1641,
    "船": 1642,
    "艦": 1643,
    "良": 1644,
    "色": 1645,
    "艺": 1646,
    "节": 1647,
    "芙": 1648,
    "芝": 1649,
    "芬": 1650,
    "花": 1651,
    "芳": 1652,
    "苏": 1653,
    "苟": 1654,
    "若": 1655,
    "苦": 1656,
    "英": 1657,
    "茂": 1658,
    "范": 1659,
    "茅": 1660,
    "茶": 1661,
    "草": 1662,
    "荒": 1663,
    "荣": 1664,
    "莉": 1665,
    "莊": 1666,
    "莫": 1667,
    "菅": 1668,
    "菊": 1669,
    "菜": 1670,
    "華": 1671,
    "菱": 1672,
    "菲": 1673,
    "菴": 1674,
    "萊": 1675,
    "萌": 1676,
    "萎": 1677,
    "营": 1678,
    "萬": 1679,
    "落": 1680,
    "葉": 1681,
    "著": 1682,
    "葛": 1683,
    "葬": 1684,
    "蒙": 1685,
    "蒸": 1686,
    "蒼": 1687,
    "蓋": 1688,
    "蓬": 1689,
    "蓮": 1690,
    "蔡": 1691,
    "蕙": 1692,
    "薄": 1693,
    "薛": 1694,
    "薦": 1695,
    "薺": 1696,
    "藏": 1697,
    "藝": 1698,
    "藤": 1699,
    "藥": 1700,
    "藻": 1701,
    "蘇": 1702,
    "蘭": 1703,
    "虎": 1704,
    "虔": 1705,
    "處": 1706,
    "虛": 1707,
    "虞": 1708,
    "號": 1709,
    "虾": 1710,
    "蛋": 1711,
    "蛤": 1712,
    "蜜": 1713,
    "蝙": 1714,
    "蝠": 1715,
    "蝶": 1716,
    "螺": 1717,
    "蟄": 1718,
    "血": 1719,
    "衆": 1720,
    "行": 1721,
    "術": 1722,
    "街": 1723,
    "衛": 1724,
    "衝": 1725,
    "衡": 1726,
    "衣": 1727,
    "表": 1728,
    "被": 1729,
    "裁": 1730,
    "裂": 1731,
    "裏": 1732,
    "裕": 1733,
    "補": 1734,
    "裝": 1735,
    "裴": 1736,
    "製": 1737,
    "襄": 1738,
    "襟": 1739,
    "襲": 1740,
    "西": 1741,
    "要": 1742,
    "覆": 1743,
    "覇": 1744,
    "見": 1745,
    "規": 1746,
    "視": 1747,
    "親": 1748,
    "覺": 1749,
    "覽": 1750,
    "觀": 1751,
    "观": 1752,
    "视": 1753,
    "角": 1754,
    "解": 1755,
    "觴": 1756,
    "言": 1757,
    "訂": 1758,
    "計": 1759,
    "訊": 1760,
    "討": 1761,
    "訓": 1762,
    "記": 1763,
    "訟": 1764,
    "訪": 1765,
    "設": 1766,
    "許": 1767,
    "訴": 1768,
    "評": 1769,
    "詞": 1770,
    "詠": 1771,
    "試": 1772,
    "詩": 1773,
    "話": 1774,
    "誌": 1775,
    "認": 1776,
    "誕": 1777,
    "誘": 1778,
    "語": 1779,
    "誠": 1780,
    "誤": 1781,
    "說": 1782,
    "調": 1783,
    "談": 1784,
    "請": 1785,
    "論": 1786,
    "諾": 1787,
    "謀": 1788,
    "謐": 1789,
    "謖": 1790,
    "謙": 1791,
    "謚": 1792,
    "講": 1793,
    "謝": 1794,
    "謠": 1795,
    "謫": 1796,
    "謹": 1797,
    "證": 1798,
    "識": 1799,
    "警": 1800,
    "議": 1801,
    "護": 1802,
    "讀": 1803,
    "變": 1804,
    "讐": 1805,
    "讓": 1806,
    "讚": 1807,
    "许": 1808,
    "课": 1809,
    "调": 1810,
    "谊": 1811,
    "谷": 1812,
    "豆": 1813,
    "豊": 1814,
    "豚": 1815,
    "象": 1816,
    "貌": 1817,
    "貞": 1818,
    "負": 1819,
    "財": 1820,
    "貢": 1821,
    "貧": 1822,
    "貨": 1823,
    "貯": 1824,
    "貴": 1825,
    "買": 1826,
    "貸": 1827,
    "費": 1828,
    "賀": 1829,
    "資": 1830,
    "賊": 1831,
    "賓": 1832,
    "賞": 1833,
    "賢": 1834,
    "賣": 1835,
    "賤": 1836,
    "質": 1837,
    "财": 1838,
    "赟": 1839,
    "赤": 1840,
    "走": 1841,
    "赴": 1842,
    "起": 1843,
    "超": 1844,
    "越": 1845,
    "趙": 1846,
    "足": 1847,
    "趾": 1848,
    "跡": 1849,
    "跨": 1850,
    "路": 1851,
    "蹟": 1852,
    "身": 1853,
    "車": 1854,
    "軌": 1855,
    "軍": 1856,
    "軒": 1857,
    "軟": 1858,
    "軸": 1859,
    "載": 1860,
    "輔": 1861,
    "輕": 1862,
    "輪": 1863,
    "輸": 1864,
    "輿": 1865,
    "轉": 1866,
    "车": 1867,
    "轿": 1868,
    "辉": 1869,
    "辛": 1870,
    "辭": 1871,
    "辰": 1872,
    "農": 1873,
    "迅": 1874,
    "迎": 1875,
    "运": 1876,
    "近": 1877,
    "返": 1878,
    "这": 1879,
    "迫": 1880,
    "述": 1881,
    "迷": 1882,
    "追": 1883,
    "退": 1884,
    "送": 1885,
    "逃": 1886,
    "逆": 1887,
    "通": 1888,
    "逞": 1889,
    "速": 1890,
    "造": 1891,
    "逢": 1892,
    "連": 1893,
    "週": 1894,
    "進": 1895,
    "逸": 1896,
    "逼": 1897,
    "遊": 1898,
    "運": 1899,
    "過": 1900,
    "道": 1901,
    "達": 1902,
    "違": 1903,
    "遞": 1904,
    "遠": 1905,
    "適": 1906,
    "遮": 1907,
    "遵": 1908,
    "遷": 1909,
    "選": 1910,
    "遺": 1911,
    "避": 1912,
    "還": 1913,
    "邊": 1914,
    "邑": 1915,
    "那": 1916,
    "邦": 1917,
    "邪": 1918,
    "邱": 1919,
    "郝": 1920,
    "郞": 1921,
    "郡": 1922,
    "部": 1923,
    "郭": 1924,
    "郵": 1925,
    "都": 1926,
    "鄕": 1927,
    "鄧": 1928,
    "鄭": 1929,
    "酉": 1930,
    "酌": 1931,
    "酒": 1932,
    "酬": 1933,
    "酸": 1934,
    "醒": 1935,
    "醫": 1936,
    "醬": 1937,
    "采": 1938,
    "里": 1939,
    "重": 1940,
    "野": 1941,
    "量": 1942,
    "金": 1943,
    "釜": 1944,
    "針": 1945,
    "釣": 1946,
    "釧": 1947,
    "鈺": 1948,
    "鉉": 1949,
    "銀": 1950,
    "銃": 1951,
    "銅": 1952,
    "銘": 1953,
    "鋪": 1954,
    "錄": 1955,
    "錐": 1956,
    "錠": 1957,
    "錢": 1958,
    "錦": 1959,
    "錨": 1960,
    "錫": 1961,
    "鍊": 1962,
    "鍋": 1963,
    "鎭": 1964,
    "鏃": 1965,
    "鐘": 1966,
    "鐵": 1967,
    "鑄": 1968,
    "鑑": 1969,
    "長": 1970,
    "长": 1971,
    "門": 1972,
    "閉": 1973,
    "開": 1974,
    "閑": 1975,
    "間": 1976,
    "閣": 1977,
    "閥": 1978,
    "閩": 1979,
    "閹": 1980,
    "關": 1981,
    "阪": 1982,
    "防": 1983,
    "阳": 1984,
    "阿": 1985,
    "附": 1986,
    "陆": 1987,
    "陋": 1988,
    "降": 1989,
    "限": 1990,
    "陕": 1991,
    "陝": 1992,
    "院": 1993,
    "陣": 1994,
    "除": 1995,
    "陰": 1996,
    "陳": 1997,
    "陵": 1998,
    "陸": 1999,
    "陽": 2000,
    "隆": 2001,
    "階": 2002,
    "隐": 2003,
    "際": 2004,
    "障": 2005,
    "隣": 2006,
    "隨": 2007,
    "險": 2008,
    "隱": 2009,
    "雁": 2010,
    "雄": 2011,
    "雅": 2012,
    "集": 2013,
    "雙": 2014,
    "離": 2015,
    "難": 2016,
    "雨": 2017,
    "雪": 2018,
    "雯": 2019,
    "雲": 2020,
    "雷": 2021,
    "電": 2022,
    "需": 2023,
    "震": 2024,
    "霖": 2025,
    "霜": 2026,
    "霞": 2027,
    "露": 2028,
    "霽": 2029,
    "靈": 2030,
    "靑": 2031,
    "青": 2032,
    "靖": 2033,
    "静": 2034,
    "靜": 2035,
    "非": 2036,
    "面": 2037,
    "韓": 2038,
    "韜": 2039,
    "音": 2040,
    "韻": 2041,
    "響": 2042,
    "項": 2043,
    "順": 2044,
    "須": 2045,
    "頭": 2046,
    "頸": 2047,
    "頻": 2048,
    "額": 2049,
    "顎": 2050,
    "顔": 2051,
    "願": 2052,
    "顚": 2053,
    "類": 2054,
    "顯": 2055,
    "频": 2056,
    "颜": 2057,
    "風": 2058,
    "风": 2059,
    "飛": 2060,
    "飞": 2061,
    "食": 2062,
    "飮": 2063,
    "飯": 2064,
    "飼": 2065,
    "飾": 2066,
    "養": 2067,
    "餘": 2068,
    "餠": 2069,
    "館": 2070,
    "饗": 2071,
    "首": 2072,
    "香": 2073,
    "馬": 2074,
    "馮": 2075,
    "馳": 2076,
    "駐": 2077,
    "駕": 2078,
    "駭": 2079,
    "騰": 2080,
    "驗": 2081,
    "驚": 2082,
    "驛": 2083,
    "驪": 2084,
    "骨": 2085,
    "髓": 2086,
    "體": 2087,
    "高": 2088,
    "髥": 2089,
    "鬪": 2090,
    "鬱": 2091,
    "鬼": 2092,
    "魁": 2093,
    "魏": 2094,
    "魔": 2095,
    "魚": 2096,
    "魯": 2097,
    "鮮": 2098,
    "鯨": 2099,
    "鱗": 2100,
    "鳥": 2101,
    "鳳": 2102,
    "鳴": 2103,
    "鴨": 2104,
    "鵬": 2105,
    "鶴": 2106,
    "鷄": 2107,
    "鷹": 2108,
    "鷺": 2109,
    "鹏": 2110,
    "鹰": 2111,
    "鹽": 2112,
    "鹿": 2113,
    "麗": 2114,
    "麝": 2115,
    "麵": 2116,
    "麻": 2117,
    "黃": 2118,
    "黎": 2119,
    "黑": 2120,
    "黒": 2121,
    "點": 2122,
    "黨": 2123,
    "鼓": 2124,
    "齋": 2125,
    "齒": 2126,
    "齡": 2127,
    "龍": 2128,
    "龙": 2129,
    "龜": 2130,
    "ꡒ": 2131,
    "ꡓ": 2132,
    "가": 2133,
    "각": 2134,
    "간": 2135,
    "갇": 2136,
    "갈": 2137,
    "갉": 2138,
    "감": 2139,
    "갑": 2140,
    "값": 2141,
    "갓": 2142,
    "갔": 2143,
    "강": 2144,
    "갖": 2145,
    "갗": 2146,
    "같": 2147,
    "갚": 2148,
    "갛": 2149,
    "개": 2150,
    "객": 2151,
    "갠": 2152,
    "갤": 2153,
    "갬": 2154,
    "갭": 2155,
    "갯": 2156,
    "갰": 2157,
    "갱": 2158,
    "갸": 2159,
    "갹": 2160,
    "걀": 2161,
    "걍": 2162,
    "걔": 2163,
    "걘": 2164,
    "거": 2165,
    "걱": 2166,
    "건": 2167,
    "걷": 2168,
    "걸": 2169,
    "검": 2170,
    "겁": 2171,
    "것": 2172,
    "겄": 2173,
    "겅": 2174,
    "겆": 2175,
    "겉": 2176,
    "겊": 2177,
    "겋": 2178,
    "게": 2179,
    "겐": 2180,
    "겔": 2181,
    "겜": 2182,
    "겝": 2183,
    "겟": 2184,
    "겠": 2185,
    "겡": 2186,
    "겨": 2187,
    "격": 2188,
    "겪": 2189,
    "견": 2190,
    "결": 2191,
    "겸": 2192,
    "겹": 2193,
    "겼": 2194,
    "경": 2195,
    "곁": 2196,
    "계": 2197,
    "곗": 2198,
    "곘": 2199,
    "고": 2200,
    "곡": 2201,
    "곤": 2202,
    "곧": 2203,
    "골": 2204,
    "곪": 2205,
    "곬": 2206,
    "곯": 2207,
    "곰": 2208,
    "곱": 2209,
    "곳": 2210,
    "공": 2211,
    "곶": 2212,
    "과": 2213,
    "곽": 2214,
    "관": 2215,
    "괂": 2216,
    "괄": 2217,
    "괌": 2218,
    "괏": 2219,
    "광": 2220,
    "괘": 2221,
    "괜": 2222,
    "괭": 2223,
    "괴": 2224,
    "괵": 2225,
    "괸": 2226,
    "굄": 2227,
    "굉": 2228,
    "교": 2229,
    "굑": 2230,
    "굣": 2231,
    "굥": 2232,
    "구": 2233,
    "국": 2234,
    "군": 2235,
    "굳": 2236,
    "굴": 2237,
    "굵": 2238,
    "굶": 2239,
    "굼": 2240,
    "굽": 2241,
    "굿": 2242,
    "궁": 2243,
    "궂": 2244,
    "궃": 2245,
    "궈": 2246,
    "궉": 2247,
    "권": 2248,
    "궐": 2249,
    "궜": 2250,
    "궝": 2251,
    "궤": 2252,
    "궬": 2253,
    "궷": 2254,
    "귀": 2255,
    "귄": 2256,
    "귈": 2257,
    "귐": 2258,
    "귑": 2259,
    "귓": 2260,
    "규": 2261,
    "균": 2262,
    "귤": 2263,
    "그": 2264,
    "극": 2265,
    "근": 2266,
    "귿": 2267,
    "글": 2268,
    "긁": 2269,
    "금": 2270,
    "급": 2271,
    "긋": 2272,
    "긍": 2273,
    "기": 2274,
    "긱": 2275,
    "긴": 2276,
    "긷": 2277,
    "길": 2278,
    "김": 2279,
    "깁": 2280,
    "깃": 2281,
    "깄": 2282,
    "깅": 2283,
    "깊": 2284,
    "까": 2285,
    "깍": 2286,
    "깎": 2287,
    "깐": 2288,
    "깔": 2289,
    "깜": 2290,
    "깝": 2291,
    "깟": 2292,
    "깠": 2293,
    "깡": 2294,
    "깥": 2295,
    "깨": 2296,
    "깬": 2297,
    "깰": 2298,
    "깸": 2299,
    "깹": 2300,
    "깻": 2301,
    "깼": 2302,
    "깽": 2303,
    "꺄": 2304,
    "꺅": 2305,
    "꺌": 2306,
    "꺠": 2307,
    "꺼": 2308,
    "꺽": 2309,
    "꺾": 2310,
    "껀": 2311,
    "껄": 2312,
    "껌": 2313,
    "껍": 2314,
    "껏": 2315,
    "껐": 2316,
    "껑": 2317,
    "께": 2318,
    "껫": 2319,
    "껴": 2320,
    "꼈": 2321,
    "꼍": 2322,
    "꼐": 2323,
    "꼬": 2324,
    "꼭": 2325,
    "꼰": 2326,
    "꼴": 2327,
    "꼼": 2328,
    "꼽": 2329,
    "꼿": 2330,
    "꽁": 2331,
    "꽂": 2332,
    "꽃": 2333,
    "꽈": 2334,
    "꽉": 2335,
    "꽛": 2336,
    "꽝": 2337,
    "꽤": 2338,
    "꽥": 2339,
    "꽹": 2340,
    "꾀": 2341,
    "꾄": 2342,
    "꾈": 2343,
    "꾐": 2344,
    "꾳": 2345,
    "꾸": 2346,
    "꾹": 2347,
    "꾼": 2348,
    "꿀": 2349,
    "꿇": 2350,
    "꿈": 2351,
    "꿉": 2352,
    "꿋": 2353,
    "꿍": 2354,
    "꿎": 2355,
    "꿏": 2356,
    "꿔": 2357,
    "꿕": 2358,
    "꿨": 2359,
    "꿩": 2360,
    "꿰": 2361,
    "꿴": 2362,
    "꿸": 2363,
    "뀄": 2364,
    "뀌": 2365,
    "뀐": 2366,
    "뀔": 2367,
    "뀜": 2368,
    "뀝": 2369,
    "끄": 2370,
    "끈": 2371,
    "끊": 2372,
    "끋": 2373,
    "끌": 2374,
    "끎": 2375,
    "끓": 2376,
    "끔": 2377,
    "끕": 2378,
    "끗": 2379,
    "끙": 2380,
    "끝": 2381,
    "끼": 2382,
    "끽": 2383,
    "낀": 2384,
    "낄": 2385,
    "낌": 2386,
    "낍": 2387,
    "낏": 2388,
    "낑": 2389,
    "나": 2390,
    "낙": 2391,
    "낚": 2392,
    "난": 2393,
    "낟": 2394,
    "날": 2395,
    "낡": 2396,
    "남": 2397,
    "납": 2398,
    "낫": 2399,
    "났": 2400,
    "낭": 2401,
    "낮": 2402,
    "낯": 2403,
    "낱": 2404,
    "낳": 2405,
    "내": 2406,
    "낵": 2407,
    "낸": 2408,
    "낼": 2409,
    "냄": 2410,
    "냅": 2411,
    "냇": 2412,
    "냈": 2413,
    "냉": 2414,
    "냐": 2415,
    "냑": 2416,
    "냔": 2417,
    "냘": 2418,
    "냠": 2419,
    "냥": 2420,
    "너": 2421,
    "넉": 2422,
    "넋": 2423,
    "넌": 2424,
    "널": 2425,
    "넒": 2426,
    "넓": 2427,
    "넘": 2428,
    "넙": 2429,
    "넛": 2430,
    "넜": 2431,
    "넝": 2432,
    "넣": 2433,
    "네": 2434,
    "넥": 2435,
    "넨": 2436,
    "넬": 2437,
    "넴": 2438,
    "넵": 2439,
    "넷": 2440,
    "넸": 2441,
    "넹": 2442,
    "녀": 2443,
    "녁": 2444,
    "년": 2445,
    "녈": 2446,
    "념": 2447,
    "녓": 2448,
    "녔": 2449,
    "녕": 2450,
    "녘": 2451,
    "녜": 2452,
    "녠": 2453,
    "녬": 2454,
    "노": 2455,
    "녹": 2456,
    "논": 2457,
    "놀": 2458,
    "놈": 2459,
    "놉": 2460,
    "놋": 2461,
    "농": 2462,
    "높": 2463,
    "놓": 2464,
    "놔": 2465,
    "놨": 2466,
    "놰": 2467,
    "뇄": 2468,
    "뇌": 2469,
    "뇐": 2470,
    "뇔": 2471,
    "뇜": 2472,
    "뇝": 2473,
    "뇨": 2474,
    "뇰": 2475,
    "뇽": 2476,
    "누": 2477,
    "눅": 2478,
    "눈": 2479,
    "눌": 2480,
    "눔": 2481,
    "눕": 2482,
    "눗": 2483,
    "눙": 2484,
    "눠": 2485,
    "눴": 2486,
    "뉘": 2487,
    "뉜": 2488,
    "뉠": 2489,
    "뉩": 2490,
    "뉴": 2491,
    "뉼": 2492,
    "늄": 2493,
    "늉": 2494,
    "느": 2495,
    "늑": 2496,
    "는": 2497,
    "늗": 2498,
    "늘": 2499,
    "늙": 2500,
    "늠": 2501,
    "늡": 2502,
    "능": 2503,
    "늦": 2504,
    "늪": 2505,
    "늬": 2506,
    "니": 2507,
    "닉": 2508,
    "닌": 2509,
    "닏": 2510,
    "닐": 2511,
    "님": 2512,
    "닙": 2513,
    "닛": 2514,
    "닝": 2515,
    "닢": 2516,
    "다": 2517,
    "닥": 2518,
    "닦": 2519,
    "단": 2520,
    "닫": 2521,
    "달": 2522,
    "닭": 2523,
    "닮": 2524,
    "닯": 2525,
    "닳": 2526,
    "담": 2527,
    "답": 2528,
    "닷": 2529,
    "당": 2530,
    "닺": 2531,
    "닻": 2532,
    "닼": 2533,
    "닿": 2534,
    "대": 2535,
    "댁": 2536,
    "댄": 2537,
    "댈": 2538,
    "댐": 2539,
    "댑": 2540,
    "댓": 2541,
    "댔": 2542,
    "댕": 2543,
    "댜": 2544,
    "더": 2545,
    "덕": 2546,
    "덖": 2547,
    "던": 2548,
    "덜": 2549,
    "덞": 2550,
    "덟": 2551,
    "덤": 2552,
    "덥": 2553,
    "덧": 2554,
    "덩": 2555,
    "덫": 2556,
    "덮": 2557,
    "데": 2558,
    "덱": 2559,
    "덴": 2560,
    "델": 2561,
    "뎀": 2562,
    "뎁": 2563,
    "뎃": 2564,
    "뎄": 2565,
    "뎅": 2566,
    "뎌": 2567,
    "뎐": 2568,
    "뎠": 2569,
    "뎡": 2570,
    "뎬": 2571,
    "도": 2572,
    "독": 2573,
    "돈": 2574,
    "돋": 2575,
    "돌": 2576,
    "돍": 2577,
    "돎": 2578,
    "돔": 2579,
    "돕": 2580,
    "돗": 2581,
    "동": 2582,
    "돛": 2583,
    "돝": 2584,
    "돠": 2585,
    "돤": 2586,
    "돨": 2587,
    "돼": 2588,
    "됀": 2589,
    "됌": 2590,
    "됍": 2591,
    "됐": 2592,
    "되": 2593,
    "된": 2594,
    "될": 2595,
    "됨": 2596,
    "됩": 2597,
    "됫": 2598,
    "됬": 2599,
    "됭": 2600,
    "됴": 2601,
    "두": 2602,
    "둑": 2603,
    "둔": 2604,
    "둘": 2605,
    "둠": 2606,
    "둡": 2607,
    "둣": 2608,
    "둥": 2609,
    "둬": 2610,
    "뒀": 2611,
    "뒤": 2612,
    "뒨": 2613,
    "뒴": 2614,
    "뒷": 2615,
    "뒹": 2616,
    "듀": 2617,
    "듄": 2618,
    "듈": 2619,
    "듐": 2620,
    "듕": 2621,
    "드": 2622,
    "득": 2623,
    "든": 2624,
    "듣": 2625,
    "들": 2626,
    "듦": 2627,
    "듬": 2628,
    "듭": 2629,
    "듯": 2630,
    "등": 2631,
    "듸": 2632,
    "디": 2633,
    "딕": 2634,
    "딘": 2635,
    "딛": 2636,
    "딜": 2637,
    "딤": 2638,
    "딥": 2639,
    "딧": 2640,
    "딨": 2641,
    "딩": 2642,
    "딪": 2643,
    "딫": 2644,
    "따": 2645,
    "딱": 2646,
    "딴": 2647,
    "딸": 2648,
    "땀": 2649,
    "땁": 2650,
    "땃": 2651,
    "땄": 2652,
    "땅": 2653,
    "땋": 2654,
    "때": 2655,
    "땐": 2656,
    "땔": 2657,
    "땜": 2658,
    "땠": 2659,
    "땡": 2660,
    "땨": 2661,
    "떄": 2662,
    "떠": 2663,
    "떡": 2664,
    "떤": 2665,
    "떨": 2666,
    "떪": 2667,
    "떫": 2668,
    "떱": 2669,
    "떳": 2670,
    "떴": 2671,
    "떵": 2672,
    "떻": 2673,
    "떼": 2674,
    "떽": 2675,
    "뗀": 2676,
    "뗄": 2677,
    "뗌": 2678,
    "뗍": 2679,
    "뗏": 2680,
    "뗐": 2681,
    "뗑": 2682,
    "또": 2683,
    "똑": 2684,
    "똔": 2685,
    "똘": 2686,
    "똠": 2687,
    "똣": 2688,
    "똥": 2689,
    "똬": 2690,
    "뙈": 2691,
    "뙜": 2692,
    "뙤": 2693,
    "뚜": 2694,
    "뚝": 2695,
    "뚠": 2696,
    "뚤": 2697,
    "뚫": 2698,
    "뚱": 2699,
    "뛰": 2700,
    "뛴": 2701,
    "뛸": 2702,
    "뜀": 2703,
    "뜁": 2704,
    "뜨": 2705,
    "뜩": 2706,
    "뜬": 2707,
    "뜯": 2708,
    "뜰": 2709,
    "뜷": 2710,
    "뜸": 2711,
    "뜹": 2712,
    "뜻": 2713,
    "띄": 2714,
    "띈": 2715,
    "띌": 2716,
    "띔": 2717,
    "띕": 2718,
    "띠": 2719,
    "띡": 2720,
    "띤": 2721,
    "띨": 2722,
    "띱": 2723,
    "띳": 2724,
    "띵": 2725,
    "라": 2726,
    "락": 2727,
    "란": 2728,
    "랄": 2729,
    "람": 2730,
    "랍": 2731,
    "랏": 2732,
    "랐": 2733,
    "랑": 2734,
    "랖": 2735,
    "랗": 2736,
    "래": 2737,
    "랙": 2738,
    "랜": 2739,
    "랠": 2740,
    "램": 2741,
    "랩": 2742,
    "랫": 2743,
    "랬": 2744,
    "랭": 2745,
    "랴": 2746,
    "략": 2747,
    "랸": 2748,
    "럅": 2749,
    "량": 2750,
    "러": 2751,
    "럭": 2752,
    "런": 2753,
    "럴": 2754,
    "럼": 2755,
    "럽": 2756,
    "럿": 2757,
    "렀": 2758,
    "렁": 2759,
    "렇": 2760,
    "레": 2761,
    "렉": 2762,
    "렌": 2763,
    "렐": 2764,
    "렘": 2765,
    "렙": 2766,
    "렛": 2767,
    "렜": 2768,
    "렝": 2769,
    "려": 2770,
    "력": 2771,
    "련": 2772,
    "렬": 2773,
    "렴": 2774,
    "렵": 2775,
    "렷": 2776,
    "렸": 2777,
    "령": 2778,
    "례": 2779,
    "롄": 2780,
    "로": 2781,
    "록": 2782,
    "론": 2783,
    "롣": 2784,
    "롤": 2785,
    "롬": 2786,
    "롭": 2787,
    "롯": 2788,
    "롱": 2789,
    "롸": 2790,
    "롹": 2791,
    "뢰": 2792,
    "뢴": 2793,
    "룀": 2794,
    "룅": 2795,
    "료": 2796,
    "룔": 2797,
    "룝": 2798,
    "룟": 2799,
    "룡": 2800,
    "루": 2801,
    "룩": 2802,
    "룬": 2803,
    "룰": 2804,
    "룸": 2805,
    "룹": 2806,
    "룻": 2807,
    "룽": 2808,
    "뤄": 2809,
    "뤘": 2810,
    "뤠": 2811,
    "뤼": 2812,
    "뤽": 2813,
    "륄": 2814,
    "륌": 2815,
    "륍": 2816,
    "륑": 2817,
    "류": 2818,
    "륙": 2819,
    "륜": 2820,
    "률": 2821,
    "륨": 2822,
    "륩": 2823,
    "륫": 2824,
    "륭": 2825,
    "르": 2826,
    "륵": 2827,
    "른": 2828,
    "를": 2829,
    "름": 2830,
    "릅": 2831,
    "릇": 2832,
    "릉": 2833,
    "릍": 2834,
    "릎": 2835,
    "릐": 2836,
    "리": 2837,
    "릭": 2838,
    "린": 2839,
    "릴": 2840,
    "림": 2841,
    "립": 2842,
    "릿": 2843,
    "링": 2844,
    "마": 2845,
    "막": 2846,
    "만": 2847,
    "많": 2848,
    "맏": 2849,
    "말": 2850,
    "맑": 2851,
    "맘": 2852,
    "맙": 2853,
    "맛": 2854,
    "망": 2855,
    "맞": 2856,
    "맟": 2857,
    "맡": 2858,
    "맣": 2859,
    "매": 2860,
    "맥": 2861,
    "맨": 2862,
    "맬": 2863,
    "맴": 2864,
    "맵": 2865,
    "맷": 2866,
    "맸": 2867,
    "맹": 2868,
    "맺": 2869,
    "먀": 2870,
    "먄": 2871,
    "먕": 2872,
    "머": 2873,
    "먹": 2874,
    "먼": 2875,
    "멀": 2876,
    "멈": 2877,
    "멉": 2878,
    "멋": 2879,
    "멍": 2880,
    "멎": 2881,
    "멓": 2882,
    "메": 2883,
    "멕": 2884,
    "멘": 2885,
    "멜": 2886,
    "멤": 2887,
    "멥": 2888,
    "멧": 2889,
    "멨": 2890,
    "멩": 2891,
    "며": 2892,
    "멱": 2893,
    "면": 2894,
    "멸": 2895,
    "몃": 2896,
    "몄": 2897,
    "명": 2898,
    "몆": 2899,
    "몇": 2900,
    "몐": 2901,
    "모": 2902,
    "목": 2903,
    "몫": 2904,
    "몬": 2905,
    "몰": 2906,
    "몸": 2907,
    "몹": 2908,
    "못": 2909,
    "몽": 2910,
    "뫼": 2911,
    "묀": 2912,
    "묄": 2913,
    "묏": 2914,
    "묘": 2915,
    "묠": 2916,
    "묫": 2917,
    "묭": 2918,
    "무": 2919,
    "묵": 2920,
    "묶": 2921,
    "문": 2922,
    "묻": 2923,
    "물": 2924,
    "묽": 2925,
    "묾": 2926,
    "뭄": 2927,
    "뭅": 2928,
    "뭇": 2929,
    "뭉": 2930,
    "뭍": 2931,
    "뭐": 2932,
    "뭔": 2933,
    "뭘": 2934,
    "뭡": 2935,
    "뭣": 2936,
    "뮈": 2937,
    "뮌": 2938,
    "뮐": 2939,
    "뮤": 2940,
    "뮨": 2941,
    "뮬": 2942,
    "뮴": 2943,
    "므": 2944,
    "믄": 2945,
    "믈": 2946,
    "믐": 2947,
    "믓": 2948,
    "믜": 2949,
    "미": 2950,
    "믹": 2951,
    "민": 2952,
    "믿": 2953,
    "밀": 2954,
    "밈": 2955,
    "밉": 2956,
    "밋": 2957,
    "밌": 2958,
    "밍": 2959,
    "밎": 2960,
    "및": 2961,
    "밑": 2962,
    "바": 2963,
    "박": 2964,
    "밖": 2965,
    "반": 2966,
    "받": 2967,
    "발": 2968,
    "밝": 2969,
    "밞": 2970,
    "밟": 2971,
    "밤": 2972,
    "밥": 2973,
    "밧": 2974,
    "방": 2975,
    "밭": 2976,
    "배": 2977,
    "백": 2978,
    "밴": 2979,
    "밸": 2980,
    "뱀": 2981,
    "뱁": 2982,
    "뱃": 2983,
    "뱄": 2984,
    "뱅": 2985,
    "뱉": 2986,
    "뱌": 2987,
    "뱜": 2988,
    "뱡": 2989,
    "버": 2990,
    "벅": 2991,
    "번": 2992,
    "벋": 2993,
    "벌": 2994,
    "범": 2995,
    "법": 2996,
    "벗": 2997,
    "벙": 2998,
    "벚": 2999,
    "벛": 3000,
    "베": 3001,
    "벡": 3002,
    "벤": 3003,
    "벧": 3004,
    "벨": 3005,
    "벰": 3006,
    "벳": 3007,
    "벴": 3008,
    "벵": 3009,
    "벼": 3010,
    "벽": 3011,
    "변": 3012,
    "별": 3013,
    "볍": 3014,
    "볏": 3015,
    "볐": 3016,
    "병": 3017,
    "볕": 3018,
    "볜": 3019,
    "보": 3020,
    "복": 3021,
    "볶": 3022,
    "본": 3023,
    "볼": 3024,
    "봄": 3025,
    "봅": 3026,
    "봇": 3027,
    "봉": 3028,
    "봐": 3029,
    "봣": 3030,
    "봤": 3031,
    "봬": 3032,
    "뵀": 3033,
    "뵈": 3034,
    "뵌": 3035,
    "뵐": 3036,
    "뵙": 3037,
    "뵤": 3038,
    "부": 3039,
    "북": 3040,
    "분": 3041,
    "붇": 3042,
    "불": 3043,
    "붉": 3044,
    "붐": 3045,
    "붑": 3046,
    "붓": 3047,
    "붕": 3048,
    "붙": 3049,
    "뷔": 3050,
    "뷜": 3051,
    "뷧": 3052,
    "뷰": 3053,
    "뷴": 3054,
    "뷸": 3055,
    "븀": 3056,
    "브": 3057,
    "븐": 3058,
    "블": 3059,
    "븕": 3060,
    "비": 3061,
    "빅": 3062,
    "빈": 3063,
    "빌": 3064,
    "빍": 3065,
    "빔": 3066,
    "빕": 3067,
    "빗": 3068,
    "빙": 3069,
    "빚": 3070,
    "빛": 3071,
    "빠": 3072,
    "빡": 3073,
    "빤": 3074,
    "빨": 3075,
    "빰": 3076,
    "빱": 3077,
    "빳": 3078,
    "빴": 3079,
    "빵": 3080,
    "빻": 3081,
    "빼": 3082,
    "빽": 3083,
    "뺀": 3084,
    "뺄": 3085,
    "뺌": 3086,
    "뺍": 3087,
    "뺏": 3088,
    "뺐": 3089,
    "뺑": 3090,
    "뺨": 3091,
    "뺴": 3092,
    "뺵": 3093,
    "뻐": 3094,
    "뻑": 3095,
    "뻔": 3096,
    "뻗": 3097,
    "뻘": 3098,
    "뻣": 3099,
    "뻤": 3100,
    "뻥": 3101,
    "뻬": 3102,
    "뻭": 3103,
    "뻰": 3104,
    "뼈": 3105,
    "뼉": 3106,
    "뼘": 3107,
    "뼛": 3108,
    "뽀": 3109,
    "뽁": 3110,
    "뽄": 3111,
    "뽈": 3112,
    "뽐": 3113,
    "뽑": 3114,
    "뽕": 3115,
    "뾰": 3116,
    "뿅": 3117,
    "뿌": 3118,
    "뿍": 3119,
    "뿐": 3120,
    "뿔": 3121,
    "뿜": 3122,
    "뿝": 3123,
    "뿡": 3124,
    "쀠": 3125,
    "쁘": 3126,
    "쁜": 3127,
    "쁠": 3128,
    "쁨": 3129,
    "쁩": 3130,
    "삐": 3131,
    "삑": 3132,
    "삔": 3133,
    "삘": 3134,
    "삠": 3135,
    "사": 3136,
    "삭": 3137,
    "삯": 3138,
    "산": 3139,
    "살": 3140,
    "삵": 3141,
    "삶": 3142,
    "삻": 3143,
    "삼": 3144,
    "삽": 3145,
    "삿": 3146,
    "샀": 3147,
    "상": 3148,
    "샅": 3149,
    "새": 3150,
    "색": 3151,
    "샌": 3152,
    "샐": 3153,
    "샘": 3154,
    "샙": 3155,
    "샛": 3156,
    "샜": 3157,
    "생": 3158,
    "샤": 3159,
    "샥": 3160,
    "샨": 3161,
    "샬": 3162,
    "샴": 3163,
    "샵": 3164,
    "샷": 3165,
    "샹": 3166,
    "샾": 3167,
    "섀": 3168,
    "섐": 3169,
    "섕": 3170,
    "서": 3171,
    "석": 3172,
    "섞": 3173,
    "선": 3174,
    "섣": 3175,
    "설": 3176,
    "섦": 3177,
    "섬": 3178,
    "섭": 3179,
    "섯": 3180,
    "섰": 3181,
    "성": 3182,
    "섳": 3183,
    "섶": 3184,
    "세": 3185,
    "섹": 3186,
    "센": 3187,
    "셀": 3188,
    "셈": 3189,
    "셉": 3190,
    "셋": 3191,
    "셌": 3192,
    "셍": 3193,
    "셔": 3194,
    "셕": 3195,
    "션": 3196,
    "셜": 3197,
    "셤": 3198,
    "셧": 3199,
    "셨": 3200,
    "셩": 3201,
    "셰": 3202,
    "셱": 3203,
    "셴": 3204,
    "셸": 3205,
    "솀": 3206,
    "솅": 3207,
    "소": 3208,
    "속": 3209,
    "솎": 3210,
    "손": 3211,
    "솔": 3212,
    "솜": 3213,
    "솝": 3214,
    "솟": 3215,
    "송": 3216,
    "솥": 3217,
    "솦": 3218,
    "솨": 3219,
    "솽": 3220,
    "쇄": 3221,
    "쇠": 3222,
    "쇤": 3223,
    "쇳": 3224,
    "쇼": 3225,
    "숀": 3226,
    "숄": 3227,
    "숍": 3228,
    "숏": 3229,
    "숑": 3230,
    "숖": 3231,
    "수": 3232,
    "숙": 3233,
    "순": 3234,
    "숟": 3235,
    "술": 3236,
    "숨": 3237,
    "숩": 3238,
    "숫": 3239,
    "숭": 3240,
    "숯": 3241,
    "숱": 3242,
    "숲": 3243,
    "숴": 3244,
    "쉈": 3245,
    "쉐": 3246,
    "쉑": 3247,
    "쉔": 3248,
    "쉘": 3249,
    "쉠": 3250,
    "쉥": 3251,
    "쉬": 3252,
    "쉭": 3253,
    "쉰": 3254,
    "쉴": 3255,
    "쉼": 3256,
    "쉽": 3257,
    "쉿": 3258,
    "슁": 3259,
    "슈": 3260,
    "슉": 3261,
    "슌": 3262,
    "슐": 3263,
    "슘": 3264,
    "슙": 3265,
    "슛": 3266,
    "슝": 3267,
    "스": 3268,
    "슥": 3269,
    "슨": 3270,
    "슬": 3271,
    "슭": 3272,
    "슴": 3273,
    "습": 3274,
    "슷": 3275,
    "승": 3276,
    "슼": 3277,
    "슽": 3278,
    "시": 3279,
    "식": 3280,
    "신": 3281,
    "싣": 3282,
    "실": 3283,
    "싫": 3284,
    "심": 3285,
    "십": 3286,
    "싯": 3287,
    "싱": 3288,
    "싶": 3289,
    "싷": 3290,
    "싸": 3291,
    "싹": 3292,
    "싼": 3293,
    "쌀": 3294,
    "쌈": 3295,
    "쌉": 3296,
    "쌌": 3297,
    "쌍": 3298,
    "쌓": 3299,
    "쌔": 3300,
    "쌕": 3301,
    "쌤": 3302,
    "쌩": 3303,
    "쌰": 3304,
    "썅": 3305,
    "써": 3306,
    "썩": 3307,
    "썬": 3308,
    "썰": 3309,
    "썸": 3310,
    "썹": 3311,
    "썼": 3312,
    "썽": 3313,
    "쎄": 3314,
    "쎈": 3315,
    "쎌": 3316,
    "쎙": 3317,
    "쏘": 3318,
    "쏙": 3319,
    "쏜": 3320,
    "쏟": 3321,
    "쏠": 3322,
    "쏨": 3323,
    "쏩": 3324,
    "쏭": 3325,
    "쏴": 3326,
    "쐈": 3327,
    "쐉": 3328,
    "쐐": 3329,
    "쐬": 3330,
    "쐰": 3331,
    "쐴": 3332,
    "쑈": 3333,
    "쑤": 3334,
    "쑥": 3335,
    "쑨": 3336,
    "쑬": 3337,
    "쑹": 3338,
    "쒀": 3339,
    "쓰": 3340,
    "쓱": 3341,
    "쓴": 3342,
    "쓸": 3343,
    "쓺": 3344,
    "씀": 3345,
    "씁": 3346,
    "씌": 3347,
    "씐": 3348,
    "씨": 3349,
    "씩": 3350,
    "씬": 3351,
    "씰": 3352,
    "씸": 3353,
    "씹": 3354,
    "씻": 3355,
    "씽": 3356,
    "아": 3357,
    "악": 3358,
    "안": 3359,
    "앉": 3360,
    "않": 3361,
    "알": 3362,
    "앎": 3363,
    "앓": 3364,
    "암": 3365,
    "압": 3366,
    "앗": 3367,
    "았": 3368,
    "앙": 3369,
    "앚": 3370,
    "앞": 3371,
    "애": 3372,
    "액": 3373,
    "앤": 3374,
    "앨": 3375,
    "앰": 3376,
    "앱": 3377,
    "앳": 3378,
    "앴": 3379,
    "앵": 3380,
    "야": 3381,
    "약": 3382,
    "얀": 3383,
    "얄": 3384,
    "얇": 3385,
    "얌": 3386,
    "얍": 3387,
    "얏": 3388,
    "얐": 3389,
    "양": 3390,
    "얕": 3391,
    "얗": 3392,
    "얘": 3393,
    "어": 3394,
    "억": 3395,
    "언": 3396,
    "얹": 3397,
    "얻": 3398,
    "얼": 3399,
    "얽": 3400,
    "엄": 3401,
    "업": 3402,
    "없": 3403,
    "엇": 3404,
    "었": 3405,
    "엉": 3406,
    "엊": 3407,
    "엌": 3408,
    "엎": 3409,
    "에": 3410,
    "엑": 3411,
    "엔": 3412,
    "엘": 3413,
    "엠": 3414,
    "엡": 3415,
    "엣": 3416,
    "엥": 3417,
    "여": 3418,
    "역": 3419,
    "엮": 3420,
    "연": 3421,
    "열": 3422,
    "엷": 3423,
    "염": 3424,
    "엽": 3425,
    "엾": 3426,
    "엿": 3427,
    "였": 3428,
    "영": 3429,
    "옅": 3430,
    "옆": 3431,
    "옇": 3432,
    "예": 3433,
    "옉": 3434,
    "옌": 3435,
    "옐": 3436,
    "옘": 3437,
    "옙": 3438,
    "옛": 3439,
    "옜": 3440,
    "오": 3441,
    "옥": 3442,
    "온": 3443,
    "올": 3444,
    "옭": 3445,
    "옮": 3446,
    "옳": 3447,
    "옴": 3448,
    "옵": 3449,
    "옷": 3450,
    "옸": 3451,
    "옹": 3452,
    "옻": 3453,
    "와": 3454,
    "왁": 3455,
    "완": 3456,
    "왈": 3457,
    "왐": 3458,
    "왑": 3459,
    "왓": 3460,
    "왔": 3461,
    "왕": 3462,
    "왜": 3463,
    "왠": 3464,
    "왱": 3465,
    "외": 3466,
    "왼": 3467,
    "욀": 3468,
    "욋": 3469,
    "요": 3470,
    "욕": 3471,
    "욘": 3472,
    "욜": 3473,
    "욤": 3474,
    "욥": 3475,
    "욧": 3476,
    "용": 3477,
    "우": 3478,
    "욱": 3479,
    "운": 3480,
    "울": 3481,
    "움": 3482,
    "웁": 3483,
    "웃": 3484,
    "웅": 3485,
    "워": 3486,
    "웍": 3487,
    "원": 3488,
    "웓": 3489,
    "월": 3490,
    "웜": 3491,
    "웝": 3492,
    "웟": 3493,
    "웠": 3494,
    "웡": 3495,
    "웤": 3496,
    "웨": 3497,
    "웩": 3498,
    "웬": 3499,
    "웰": 3500,
    "웸": 3501,
    "웹": 3502,
    "웻": 3503,
    "웽": 3504,
    "위": 3505,
    "윅": 3506,
    "윈": 3507,
    "윋": 3508,
    "윌": 3509,
    "윔": 3510,
    "윕": 3511,
    "윗": 3512,
    "윙": 3513,
    "유": 3514,
    "육": 3515,
    "윤": 3516,
    "율": 3517,
    "윰": 3518,
    "윱": 3519,
    "윳": 3520,
    "융": 3521,
    "윷": 3522,
    "으": 3523,
    "윽": 3524,
    "윾": 3525,
    "은": 3526,
    "을": 3527,
    "읇": 3528,
    "읊": 3529,
    "음": 3530,
    "읍": 3531,
    "읏": 3532,
    "응": 3533,
    "읗": 3534,
    "의": 3535,
    "읜": 3536,
    "읩": 3537,
    "이": 3538,
    "익": 3539,
    "인": 3540,
    "읹": 3541,
    "일": 3542,
    "읽": 3543,
    "잃": 3544,
    "임": 3545,
    "입": 3546,
    "잇": 3547,
    "있": 3548,
    "잉": 3549,
    "잊": 3550,
    "잌": 3551,
    "잎": 3552,
    "자": 3553,
    "작": 3554,
    "잔": 3555,
    "잖": 3556,
    "잗": 3557,
    "잘": 3558,
    "잠": 3559,
    "잡": 3560,
    "잣": 3561,
    "잤": 3562,
    "장": 3563,
    "잦": 3564,
    "재": 3565,
    "잭": 3566,
    "잰": 3567,
    "잴": 3568,
    "잼": 3569,
    "잽": 3570,
    "잿": 3571,
    "쟀": 3572,
    "쟁": 3573,
    "쟈": 3574,
    "쟉": 3575,
    "쟌": 3576,
    "쟝": 3577,
    "쟤": 3578,
    "쟨": 3579,
    "저": 3580,
    "적": 3581,
    "전": 3582,
    "절": 3583,
    "젊": 3584,
    "젋": 3585,
    "점": 3586,
    "접": 3587,
    "젓": 3588,
    "젔": 3589,
    "정": 3590,
    "젖": 3591,
    "제": 3592,
    "젝": 3593,
    "젠": 3594,
    "젤": 3595,
    "젬": 3596,
    "젭": 3597,
    "젯": 3598,
    "젱": 3599,
    "져": 3600,
    "젹": 3601,
    "젼": 3602,
    "졋": 3603,
    "졌": 3604,
    "졍": 3605,
    "졘": 3606,
    "조": 3607,
    "족": 3608,
    "존": 3609,
    "졸": 3610,
    "좀": 3611,
    "좁": 3612,
    "종": 3613,
    "좆": 3614,
    "좇": 3615,
    "좋": 3616,
    "좌": 3617,
    "좍": 3618,
    "좔": 3619,
    "좡": 3620,
    "좨": 3621,
    "죄": 3622,
    "죈": 3623,
    "죌": 3624,
    "죔": 3625,
    "죗": 3626,
    "죠": 3627,
    "죡": 3628,
    "죤": 3629,
    "죵": 3630,
    "주": 3631,
    "죽": 3632,
    "준": 3633,
    "줄": 3634,
    "줌": 3635,
    "줍": 3636,
    "줏": 3637,
    "중": 3638,
    "줒": 3639,
    "줘": 3640,
    "줬": 3641,
    "줴": 3642,
    "쥐": 3643,
    "쥔": 3644,
    "쥘": 3645,
    "쥠": 3646,
    "쥬": 3647,
    "쥰": 3648,
    "쥴": 3649,
    "쥿": 3650,
    "즈": 3651,
    "즉": 3652,
    "즌": 3653,
    "즐": 3654,
    "즘": 3655,
    "즙": 3656,
    "증": 3657,
    "지": 3658,
    "직": 3659,
    "진": 3660,
    "짇": 3661,
    "질": 3662,
    "짊": 3663,
    "짐": 3664,
    "집": 3665,
    "짓": 3666,
    "징": 3667,
    "짖": 3668,
    "짙": 3669,
    "짚": 3670,
    "짜": 3671,
    "짝": 3672,
    "짠": 3673,
    "짢": 3674,
    "짤": 3675,
    "짦": 3676,
    "짧": 3677,
    "짬": 3678,
    "짭": 3679,
    "짯": 3680,
    "짰": 3681,
    "짱": 3682,
    "째": 3683,
    "짹": 3684,
    "짼": 3685,
    "쨀": 3686,
    "쨈": 3687,
    "쨋": 3688,
    "쨌": 3689,
    "쨍": 3690,
    "쨩": 3691,
    "쩌": 3692,
    "쩍": 3693,
    "쩐": 3694,
    "쩔": 3695,
    "쩜": 3696,
    "쩝": 3697,
    "쩡": 3698,
    "쩨": 3699,
    "쪄": 3700,
    "쪘": 3701,
    "쪼": 3702,
    "쪽": 3703,
    "쫀": 3704,
    "쫄": 3705,
    "쫌": 3706,
    "쫑": 3707,
    "쫒": 3708,
    "쫓": 3709,
    "쫙": 3710,
    "쫭": 3711,
    "쫴": 3712,
    "쬈": 3713,
    "쬐": 3714,
    "쬔": 3715,
    "쬘": 3716,
    "쬠": 3717,
    "쭈": 3718,
    "쭉": 3719,
    "쭌": 3720,
    "쭐": 3721,
    "쭘": 3722,
    "쭙": 3723,
    "쭝": 3724,
    "쭤": 3725,
    "쭸": 3726,
    "쮸": 3727,
    "쯔": 3728,
    "쯤": 3729,
    "쯩": 3730,
    "찌": 3731,
    "찍": 3732,
    "찎": 3733,
    "찐": 3734,
    "찔": 3735,
    "찜": 3736,
    "찝": 3737,
    "찟": 3738,
    "찡": 3739,
    "찢": 3740,
    "찧": 3741,
    "차": 3742,
    "착": 3743,
    "찬": 3744,
    "찮": 3745,
    "찯": 3746,
    "찰": 3747,
    "참": 3748,
    "찹": 3749,
    "찻": 3750,
    "찼": 3751,
    "창": 3752,
    "찾": 3753,
    "찿": 3754,
    "챃": 3755,
    "채": 3756,
    "책": 3757,
    "챈": 3758,
    "챌": 3759,
    "챔": 3760,
    "챕": 3761,
    "챗": 3762,
    "챘": 3763,
    "챙": 3764,
    "챠": 3765,
    "챤": 3766,
    "챦": 3767,
    "챨": 3768,
    "챱": 3769,
    "챵": 3770,
    "처": 3771,
    "척": 3772,
    "천": 3773,
    "철": 3774,
    "첢": 3775,
    "첨": 3776,
    "첩": 3777,
    "첫": 3778,
    "첬": 3779,
    "청": 3780,
    "체": 3781,
    "첵": 3782,
    "첸": 3783,
    "첼": 3784,
    "쳄": 3785,
    "쳇": 3786,
    "쳉": 3787,
    "쳐": 3788,
    "쳔": 3789,
    "쳡": 3790,
    "쳤": 3791,
    "쳥": 3792,
    "쳬": 3793,
    "초": 3794,
    "촉": 3795,
    "촌": 3796,
    "촐": 3797,
    "촘": 3798,
    "촙": 3799,
    "촛": 3800,
    "총": 3801,
    "촨": 3802,
    "촬": 3803,
    "촹": 3804,
    "최": 3805,
    "쵤": 3806,
    "쵸": 3807,
    "추": 3808,
    "축": 3809,
    "춘": 3810,
    "출": 3811,
    "춤": 3812,
    "춥": 3813,
    "춧": 3814,
    "충": 3815,
    "춰": 3816,
    "췄": 3817,
    "췌": 3818,
    "췐": 3819,
    "취": 3820,
    "췬": 3821,
    "췰": 3822,
    "츄": 3823,
    "츈": 3824,
    "츌": 3825,
    "츠": 3826,
    "측": 3827,
    "츤": 3828,
    "츨": 3829,
    "츰": 3830,
    "층": 3831,
    "치": 3832,
    "칙": 3833,
    "친": 3834,
    "칟": 3835,
    "칠": 3836,
    "칡": 3837,
    "칢": 3838,
    "침": 3839,
    "칩": 3840,
    "칫": 3841,
    "칭": 3842,
    "카": 3843,
    "칵": 3844,
    "칸": 3845,
    "칻": 3846,
    "칼": 3847,
    "캄": 3848,
    "캅": 3849,
    "캇": 3850,
    "캉": 3851,
    "캐": 3852,
    "캑": 3853,
    "캔": 3854,
    "캘": 3855,
    "캠": 3856,
    "캡": 3857,
    "캣": 3858,
    "캤": 3859,
    "캥": 3860,
    "캬": 3861,
    "캿": 3862,
    "커": 3863,
    "컥": 3864,
    "컨": 3865,
    "컫": 3866,
    "컬": 3867,
    "컴": 3868,
    "컵": 3869,
    "컷": 3870,
    "컸": 3871,
    "컹": 3872,
    "케": 3873,
    "켁": 3874,
    "켄": 3875,
    "켈": 3876,
    "켐": 3877,
    "켑": 3878,
    "켓": 3879,
    "켕": 3880,
    "켜": 3881,
    "켠": 3882,
    "켤": 3883,
    "켬": 3884,
    "켭": 3885,
    "켰": 3886,
    "코": 3887,
    "콕": 3888,
    "콘": 3889,
    "콜": 3890,
    "콤": 3891,
    "콥": 3892,
    "콧": 3893,
    "콩": 3894,
    "콰": 3895,
    "콱": 3896,
    "콴": 3897,
    "콸": 3898,
    "쾃": 3899,
    "쾅": 3900,
    "쾌": 3901,
    "쾨": 3902,
    "쾰": 3903,
    "쿄": 3904,
    "쿅": 3905,
    "쿠": 3906,
    "쿡": 3907,
    "쿤": 3908,
    "쿨": 3909,
    "쿰": 3910,
    "쿱": 3911,
    "쿳": 3912,
    "쿵": 3913,
    "쿼": 3914,
    "퀀": 3915,
    "퀄": 3916,
    "퀏": 3917,
    "퀘": 3918,
    "퀜": 3919,
    "퀠": 3920,
    "퀫": 3921,
    "퀭": 3922,
    "퀴": 3923,
    "퀵": 3924,
    "퀸": 3925,
    "퀼": 3926,
    "큅": 3927,
    "큇": 3928,
    "큐": 3929,
    "큘": 3930,
    "큠": 3931,
    "크": 3932,
    "큰": 3933,
    "클": 3934,
    "큼": 3935,
    "큽": 3936,
    "큿": 3937,
    "킁": 3938,
    "키": 3939,
    "킥": 3940,
    "킨": 3941,
    "킬": 3942,
    "킴": 3943,
    "킵": 3944,
    "킷": 3945,
    "킹": 3946,
    "타": 3947,
    "탁": 3948,
    "탄": 3949,
    "탈": 3950,
    "탉": 3951,
    "탐": 3952,
    "탑": 3953,
    "탓": 3954,
    "탔": 3955,
    "탕": 3956,
    "태": 3957,
    "택": 3958,
    "탠": 3959,
    "탤": 3960,
    "탬": 3961,
    "탭": 3962,
    "탯": 3963,
    "탰": 3964,
    "탱": 3965,
    "탸": 3966,
    "터": 3967,
    "턱": 3968,
    "턴": 3969,
    "털": 3970,
    "텀": 3971,
    "텁": 3972,
    "텃": 3973,
    "텄": 3974,
    "텅": 3975,
    "테": 3976,
    "텍": 3977,
    "텐": 3978,
    "텔": 3979,
    "템": 3980,
    "텝": 3981,
    "텟": 3982,
    "텡": 3983,
    "텨": 3984,
    "텬": 3985,
    "텼": 3986,
    "톄": 3987,
    "톈": 3988,
    "토": 3989,
    "톡": 3990,
    "톤": 3991,
    "톨": 3992,
    "톰": 3993,
    "톱": 3994,
    "톳": 3995,
    "통": 3996,
    "톹": 3997,
    "톺": 3998,
    "퇀": 3999,
    "퇘": 4000,
    "퇴": 4001,
    "툇": 4002,
    "툠": 4003,
    "투": 4004,
    "툭": 4005,
    "툰": 4006,
    "툴": 4007,
    "툼": 4008,
    "툽": 4009,
    "툿": 4010,
    "퉁": 4011,
    "퉈": 4012,
    "퉜": 4013,
    "퉤": 4014,
    "튀": 4015,
    "튄": 4016,
    "튈": 4017,
    "튐": 4018,
    "튑": 4019,
    "튕": 4020,
    "튜": 4021,
    "튠": 4022,
    "튤": 4023,
    "튬": 4024,
    "트": 4025,
    "특": 4026,
    "튼": 4027,
    "튿": 4028,
    "틀": 4029,
    "틈": 4030,
    "틉": 4031,
    "틋": 4032,
    "틔": 4033,
    "티": 4034,
    "틱": 4035,
    "틴": 4036,
    "틸": 4037,
    "팀": 4038,
    "팁": 4039,
    "팃": 4040,
    "팅": 4041,
    "파": 4042,
    "팍": 4043,
    "팎": 4044,
    "판": 4045,
    "팔": 4046,
    "팜": 4047,
    "팝": 4048,
    "팟": 4049,
    "팠": 4050,
    "팡": 4051,
    "팥": 4052,
    "패": 4053,
    "팩": 4054,
    "팬": 4055,
    "팰": 4056,
    "팸": 4057,
    "팹": 4058,
    "팻": 4059,
    "팼": 4060,
    "팽": 4061,
    "퍄": 4062,
    "퍅": 4063,
    "퍼": 4064,
    "퍽": 4065,
    "펀": 4066,
    "펄": 4067,
    "펌": 4068,
    "펍": 4069,
    "펏": 4070,
    "펐": 4071,
    "펑": 4072,
    "페": 4073,
    "펙": 4074,
    "펜": 4075,
    "펠": 4076,
    "펨": 4077,
    "펩": 4078,
    "펫": 4079,
    "펭": 4080,
    "펴": 4081,
    "편": 4082,
    "펼": 4083,
    "폄": 4084,
    "폈": 4085,
    "평": 4086,
    "폐": 4087,
    "포": 4088,
    "폭": 4089,
    "폰": 4090,
    "폴": 4091,
    "폼": 4092,
    "폽": 4093,
    "폿": 4094,
    "퐁": 4095,
    "퐈": 4096,
    "퐝": 4097,
    "푀": 4098,
    "푄": 4099,
    "푈": 4100,
    "표": 4101,
    "푯": 4102,
    "푸": 4103,
    "푹": 4104,
    "푼": 4105,
    "풀": 4106,
    "풂": 4107,
    "품": 4108,
    "풉": 4109,
    "풋": 4110,
    "풍": 4111,
    "퓌": 4112,
    "퓐": 4113,
    "퓨": 4114,
    "퓰": 4115,
    "퓸": 4116,
    "프": 4117,
    "픈": 4118,
    "플": 4119,
    "픔": 4120,
    "픕": 4121,
    "픙": 4122,
    "피": 4123,
    "픽": 4124,
    "핀": 4125,
    "필": 4126,
    "핌": 4127,
    "핍": 4128,
    "핏": 4129,
    "핑": 4130,
    "하": 4131,
    "학": 4132,
    "한": 4133,
    "할": 4134,
    "핥": 4135,
    "함": 4136,
    "합": 4137,
    "핫": 4138,
    "핬": 4139,
    "항": 4140,
    "해": 4141,
    "핵": 4142,
    "핸": 4143,
    "핼": 4144,
    "햄": 4145,
    "햅": 4146,
    "햇": 4147,
    "했": 4148,
    "행": 4149,
    "햋": 4150,
    "햐": 4151,
    "햝": 4152,
    "향": 4153,
    "헀": 4154,
    "허": 4155,
    "헉": 4156,
    "헌": 4157,
    "헐": 4158,
    "험": 4159,
    "헙": 4160,
    "헛": 4161,
    "헝": 4162,
    "헣": 4163,
    "헤": 4164,
    "헥": 4165,
    "헨": 4166,
    "헬": 4167,
    "헴": 4168,
    "헵": 4169,
    "헷": 4170,
    "헸": 4171,
    "헹": 4172,
    "혀": 4173,
    "혁": 4174,
    "현": 4175,
    "혈": 4176,
    "혐": 4177,
    "협": 4178,
    "혓": 4179,
    "혔": 4180,
    "형": 4181,
    "혜": 4182,
    "호": 4183,
    "혹": 4184,
    "혼": 4185,
    "홀": 4186,
    "홈": 4187,
    "홉": 4188,
    "홋": 4189,
    "홍": 4190,
    "홑": 4191,
    "화": 4192,
    "확": 4193,
    "환": 4194,
    "활": 4195,
    "홧": 4196,
    "황": 4197,
    "홱": 4198,
    "횃": 4199,
    "회": 4200,
    "획": 4201,
    "횔": 4202,
    "횟": 4203,
    "횡": 4204,
    "효": 4205,
    "횰": 4206,
    "후": 4207,
    "훅": 4208,
    "훈": 4209,
    "훌": 4210,
    "훑": 4211,
    "훔": 4212,
    "훗": 4213,
    "훙": 4214,
    "훝": 4215,
    "훠": 4216,
    "훤": 4217,
    "훨": 4218,
    "훼": 4219,
    "휀": 4220,
    "휑": 4221,
    "휘": 4222,
    "휙": 4223,
    "휜": 4224,
    "휠": 4225,
    "휨": 4226,
    "휩": 4227,
    "휴": 4228,
    "휸": 4229,
    "휼": 4230,
    "흄": 4231,
    "흉": 4232,
    "흐": 4233,
    "흑": 4234,
    "흔": 4235,
    "흗": 4236,
    "흘": 4237,
    "흙": 4238,
    "흝": 4239,
    "흠": 4240,
    "흡": 4241,
    "흣": 4242,
    "흥": 4243,
    "흩": 4244,
    "희": 4245,
    "흰": 4246,
    "흴": 4247,
    "히": 4248,
    "힉": 4249,
    "힌": 4250,
    "힐": 4251,
    "힘": 4252,
    "힙": 4253,
    "힛": 4254,
    "힝": 4255,
    "蘭": 4256,
    "浪": 4257,
    "老": 4258,
    "論": 4259,
    "不": 4260,
    "兩": 4261,
    "梁": 4262,
    "連": 4263,
    "龍": 4264,
    "流": 4265,
    "李": 4266,
    "林": 4267,
    "茶": 4268,
    "ﬁ": 4269,
    "ﬂ": 4270,
    "ｇ": 4271,
    "ｍ": 4272,
    "ｘ": 4273,
    "ﾎ": 4274,
    "_t": 4275,
    "he": 4276,
    "_a": 4277,
    "in": 4278,
    "_the": 4279,
    "on": 4280,
    "re": 4281,
    "_s": 4282,
    "_c": 4283,
    "er": 4284,
    "_o": 4285,
    "_w": 4286,
    "at": 4287,
    "en": 4288,
    "_p": 4289,
    "an": 4290,
    "it": 4291,
    "_b": 4292,
    "or": 4293,
    "is": 4294,
    "_f": 4295,
    "ed": 4296,
    "_of": 4297,
    "_in": 4298,
    "_m": 4299,
    "다.": 4300,
    "_an": 4301,
    "es": 4302,
    "al": 4303,
    "ing": 4304,
    "ar": 4305,
    "ion": 4306,
    "_d": 4307,
    "_to": 4308,
    "ou": 4309,
    "ic": 4310,
    "_and": 4311,
    "_h": 4312,
    "as": 4313,
    "ent": 4314,
    "ro": 4315,
    "le": 4316,
    "_th": 4317,
    "_re": 4318,
    "_e": 4319,
    "_g": 4320,
    "il": 4321,
    "_n": 4322,
    "ct": 4323,
    "_l": 4324,
    "om": 4325,
    "ation": 4326,
    "_be": 4327,
    "_is": 4328,
    "ve": 4329,
    "_이": 4330,
    "st": 4331,
    "_있": 4332,
    "un": 4333,
    "_i": 4334,
    "ce": 4335,
    "id": 4336,
    "_k": 4337,
    "_for": 4338,
    "_y": 4339,
    "_1": 4340,
    "ol": 4341,
    "_on": 4342,
    "ut": 4343,
    "_that": 4344,
    "_it": 4345,
    "et": 4346,
    "_pro": 4347,
    "ly": 4348,
    "ment": 4349,
    "us": 4350,
    "으로": 4351,
    "_as": 4352,
    "ch": 4353,
    "ur": 4354,
    "_2": 4355,
    "_수": 4356,
    "_st": 4357,
    "ore": 4358,
    "_wh": 4359,
    "ot": 4360,
    "ad": 4361,
    "ay": 4362,
    "ers": 4363,
    "_대": 4364,
    "_\"": 4365,
    "_he": 4366,
    "에서": 4367,
    "im": 4368,
    "_사": 4369,
    "ong": 4370,
    "am": 4371,
    "ig": 4372,
    "ir": 4373,
    "_se": 4374,
    "_지": 4375,
    "ill": 4376,
    "_con": 4377,
    "ul": 4378,
    "ith": 4379,
    "_com": 4380,
    "th": 4381,
    "_with": 4382,
    "ow": 4383,
    "_한": 4384,
    "_ch": 4385,
    "_de": 4386,
    "_ex": 4387,
    "_su": 4388,
    "_j": 4389,
    "ver": 4390,
    "ter": 4391,
    "_것": 4392,
    "_at": 4393,
    "se": 4394,
    "_sh": 4395,
    "_가": 4396,
    "'s": 4397,
    "_기": 4398,
    "_we": 4399,
    "_are": 4400,
    "_was": 4401,
    "_전": 4402,
    "_you": 4403,
    "_그": 4404,
    "하는": 4405,
    "_by": 4406,
    "_r": 4407,
    "니다.": 4408,
    "ge": 4409,
    "est": 4410,
    "_경": 4411,
    "_시": 4412,
    "op": 4413,
    "oun": 4414,
    "_v": 4415,
    "_제": 4416,
    "iv": 4417,
    "ies": 4418,
    "art": 4419,
    "ial": 4420,
    "pp": 4421,
    "_al": 4422,
    "s.": 4423,
    "ate": 4424,
    "s,": 4425,
    "ld": 4426,
    "_will": 4427,
    "all": 4428,
    "_등": 4429,
    "ort": 4430,
    "ist": 4431,
    "ity": 4432,
    "_보": 4433,
    "res": 4434,
    "_go": 4435,
    "_위": 4436,
    "_ha": 4437,
    "00": 4438,
    "_ne": 4439,
    "했다.": 4440,
    "_or": 4441,
    "_정": 4442,
    "_kore": 4443,
    "_me": 4444,
    "_un": 4445,
    "ive": 4446,
    "ain": 4447,
    "her": 4448,
    "oc": 4449,
    "_주": 4450,
    "하고": 4451,
    "ect": 4452,
    "ess": 4453,
    "ak": 4454,
    "ud": 4455,
    "_아": 4456,
    "_나": 4457,
    "_le": 4458,
    "if": 4459,
    "_tr": 4460,
    "ang": 4461,
    "_공": 4462,
    "_3": 4463,
    "mp": 4464,
    "_다": 4465,
    "_중": 4466,
    "rom": 4467,
    "du": 4468,
    "ice": 4469,
    "_자": 4470,
    "_whe": 4471,
    "ac": 4472,
    "and": 4473,
    "_comp": 4474,
    "ant": 4475,
    "_'": 4476,
    "_있다.": 4477,
    "_from": 4478,
    "_관": 4479,
    "os": 4480,
    "요.": 4481,
    "_this": 4482,
    "ab": 4483,
    "_have": 4484,
    "end": 4485,
    "od": 4486,
    "_인": 4487,
    "_not": 4488,
    "_exp": 4489,
    "iz": 4490,
    "_일": 4491,
    "_부": 4492,
    "igh": 4493,
    "_has": 4494,
    "ich": 4495,
    "ear": 4496,
    "um": 4497,
    "red": 4498,
    "_which": 4499,
    "_(": 4500,
    "_pl": 4501,
    "_who": 4502,
    "이다.": 4503,
    "_inc": 4504,
    "qu": 4505,
    "_wor": 4506,
    "ure": 4507,
    "_sa": 4508,
    "_하": 4509,
    "te": 4510,
    "_내": 4511,
    "_can": 4512,
    "ye": 4513,
    "_조": 4514,
    "_상": 4515,
    "age": 4516,
    "ult": 4517,
    "_20": 4518,
    "ap": 4519,
    "ib": 4520,
    "_sp": 4521,
    "_구": 4522,
    "ast": 4523,
    "_year": 4524,
    "_국": 4525,
    "습니다.": 4526,
    "ip": 4527,
    "_res": 4528,
    "_해": 4529,
    "ated": 4530,
    "_af": 4531,
    "_part": 4532,
    "ren": 4533,
    "_있는": 4534,
    "들이": 4535,
    "ance": 4536,
    "_but": 4537,
    "ary": 4538,
    "_ar": 4539,
    "_there": 4540,
    "_의": 4541,
    "_소": 4542,
    "gh": 4543,
    "_off": 4544,
    "_오": 4545,
    "_도": 4546,
    "act": 4547,
    "_ad": 4548,
    "_korea": 4549,
    "_man": 4550,
    "cc": 4551,
    "_prov": 4552,
    "_모": 4553,
    "use": 4554,
    "ok": 4555,
    "_te": 4556,
    "ime": 4557,
    "_ab": 4558,
    "_비": 4559,
    "_5": 4560,
    "der": 4561,
    "_어": 4562,
    "_여": 4563,
    "ue": 4564,
    "_고": 4565,
    "_우": 4566,
    "_서": 4567,
    "ard": 4568,
    "ry": 4569,
    "_유": 4570,
    "ie": 4571,
    "_않": 4572,
    "_미": 4573,
    "ll": 4574,
    "em": 4575,
    "ould": 4576,
    "_so": 4577,
    "다는": 4578,
    "ung": 4579,
    "out": 4580,
    "_comm": 4581,
    "_4": 4582,
    "_개": 4583,
    "vern": 4584,
    "_때": 4585,
    "_연": 4586,
    "_ag": 4587,
    "ase": 4588,
    "ough": 4589,
    "_발": 4590,
    "_dis": 4591,
    "ark": 4592,
    "ust": 4593,
    "_u": 4594,
    "_선": 4595,
    "ition": 4596,
    "_없": 4597,
    "_if": 4598,
    "하여": 4599,
    "ident": 4600,
    "_당": 4601,
    "ag": 4602,
    "ous": 4603,
    "_govern": 4604,
    "_cont": 4605,
    "다고": 4606,
    "ction": 4607,
    "_en": 4608,
    "_신": 4609,
    "mb": 4610,
    "_when": 4611,
    "에는": 4612,
    "_mo": 4613,
    "_do": 4614,
    "_said": 4615,
    "_pr": 4616,
    "_만": 4617,
    "ight": 4618,
    "_예": 4619,
    "_마": 4620,
    "_문": 4621,
    "lic": 4622,
    "ince": 4623,
    "ome": 4624,
    "ans": 4625,
    "_따": 4626,
    "_최": 4627,
    "_bec": 4628,
    "_방": 4629,
    "_shall": 4630,
    "our": 4631,
    "_per": 4632,
    "_app": 4633,
    "_ev": 4634,
    "_rep": 4635,
    "_pres": 4636,
    "so": 4637,
    "_after": 4638,
    "_pe": 4639,
    "_op": 4640,
    "_통": 4641,
    "yeong": 4642,
    "ount": 4643,
    "에게": 4644,
    "for": 4645,
    "_been": 4646,
    "_안": 4647,
    "_말": 4648,
    "lo": 4649,
    "ub": 4650,
    "_time": 4651,
    "ae": 4652,
    "_acc": 4653,
    "_act": 4654,
    "_were": 4655,
    "_min": 4656,
    "cial": 4657,
    "ire": 4658,
    "_생": 4659,
    "_영": 4660,
    "ide": 4661,
    "_거": 4662,
    "ound": 4663,
    "_work": 4664,
    "지만": 4665,
    "이라": 4666,
    "_교": 4667,
    "ational": 4668,
    "ign": 4669,
    "_us": 4670,
    "_한국": 4671,
    "_강": 4672,
    "ther": 4673,
    "_co": 4674,
    "_실": 4675,
    "_imp": 4676,
    "_out": 4677,
    "_201": 4678,
    "_korean": 4679,
    ".\"": 4680,
    "_동": 4681,
    "_they": 4682,
    "_김": 4683,
    "_진": 4684,
    "_저": 4685,
    "are": 4686,
    "es,": 4687,
    "_kim": 4688,
    "ake": 4689,
    "_pre": 4690,
    "_바": 4691,
    "_am": 4692,
    "_pol": 4693,
    "_현": 4694,
    "ame": 4695,
    "_his": 4696,
    "con": 4697,
    "ople": 4698,
    "ine": 4699,
    "_장": 4700,
    "ik": 4701,
    "_많": 4702,
    "ru": 4703,
    "form": 4704,
    "vel": 4705,
    "_people": 4706,
    "_also": 4707,
    "_government": 4708,
    "_fir": 4709,
    "_gr": 4710,
    "다\"": 4711,
    "erv": 4712,
    "_such": 4713,
    "_성": 4714,
    "_than": 4715,
    "_6": 4716,
    "_head": 4717,
    "ities": 4718,
    "_inv": 4719,
    "el": 4720,
    "까지": 4721,
    "_compan": 4722,
    "air": 4723,
    "_경기": 4724,
    "_more": 4725,
    "_세": 4726,
    "_bus": 4727,
    "ence": 4728,
    "_rec": 4729,
    "_무": 4730,
    "ding": 4731,
    "_all": 4732,
    "_new": 4733,
    "_10": 4734,
    "ace": 4735,
    "_받": 4736,
    "_first": 4737,
    "_my": 4738,
    "_gyeong": 4739,
    "_may": 4740,
    "_int": 4741,
    "_결": 4742,
    "ree": 4743,
    "ause": 4744,
    "_their": 4745,
    "_att": 4746,
    "한다.": 4747,
    "ical": 4748,
    "_확": 4749,
    "_및": 4750,
    "ff": 4751,
    "_지난": 4752,
    "_것으로": 4753,
    "_reg": 4754,
    "lud": 4755,
    "_불": 4756,
    "one": 4757,
    "_gu": 4758,
    "_day": 4759,
    "_fin": 4760,
    "_추": 4761,
    "ens": 4762,
    "_대한": 4763,
    "_분": 4764,
    "_about": 4765,
    "ict": 4766,
    "_재": 4767,
    "_cl": 4768,
    "_ro": 4769,
    "uc": 4770,
    "og": 4771,
    "_노": 4772,
    "부터": 4773,
    "면서": 4774,
    "적으로": 4775,
    "_supp": 4776,
    "ri": 4777,
    "_더": 4778,
    "_sc": 4779,
    "_pub": 4780,
    "duct": 4781,
    "-d": 4782,
    "gi": 4783,
    "ike": 4784,
    "_계": 4785,
    "_7": 4786,
    "적인": 4787,
    "_cons": 4788,
    "_같": 4789,
    "'t": 4790,
    "_필": 4791,
    "_특": 4792,
    "_한다.": 4793,
    "_원": 4794,
    "istr": 4795,
    "ert": 4796,
    "y,": 4797,
    "hed": 4798,
    "_경우": 4799,
    "_감": 4800,
    "_설": 4801,
    "_참": 4802,
    "int": 4803,
    "erson": 4804,
    "_under": 4805,
    "ations": 4806,
    "_because": 4807,
    "_스": 4808,
    "ed.": 4809,
    "ade": 4810,
    "ile": 4811,
    "ed,": 4812,
    "_남": 4813,
    "ject": 4814,
    "_위해": 4815,
    "ish": 4816,
    "_lo": 4817,
    "_우리": 4818,
    "_차": 4819,
    "하기": 4820,
    "_fe": 4821,
    "ack": 4822,
    "_회": 4823,
    "_includ": 4824,
    "_one": 4825,
    "_up": 4826,
    "_no": 4827,
    "_offic": 4828,
    "ia": 4829,
    "_where": 4830,
    "_알": 4831,
    "_cent": 4832,
    "_되": 4833,
    "_건": 4834,
    "we": 4835,
    "_spe": 4836,
    "wo": 4837,
    "ual": 4838,
    "-g": 4839,
    "lect": 4840,
    "요?": 4841,
    "_적": 4842,
    "_public": 4843,
    "_inter": 4844,
    "ass": 4845,
    "able": 4846,
    "_매": 4847,
    "es.": 4848,
    "ning": 4849,
    "_invest": 4850,
    "ach": 4851,
    "_gyeonggi": 4852,
    "_반": 4853,
    "었다.": 4854,
    "rough": 4855,
    "_jo": 4856,
    "_art": 4857,
    "ious": 4858,
    "하게": 4859,
    "_sub": 4860,
    "_운": 4861,
    "eration": 4862,
    "oul": 4863,
    "_학": 4864,
    "ced": 4865,
    "_its": 4866,
    "_행": 4867,
    "_po": 4868,
    "ution": 4869,
    "_8": 4870,
    "ative": 4871,
    "_won": 4872,
    "_입": 4873,
    "low": 4874,
    "_inst": 4875,
    "다\"고": 4876,
    "_loc": 4877,
    "_national": 4878,
    "_배": 4879,
    "_other": 4880,
    "ail": 4881,
    "_필요": 4882,
    "_후": 4883,
    "_올": 4884,
    "aw": 4885,
    "_seoul": 4886,
    "min": 4887,
    "_dec": 4888,
    "_직": 4889,
    "_열": 4890,
    "장은": 4891,
    "000": 4892,
    "_할": 4893,
    "cho": 4894,
    "rent": 4895,
    "고,": 4896,
    "_출": 4897,
    "_ent": 4898,
    "_through": 4899,
    "_과": 4900,
    "very": 4901,
    "illion": 4902,
    "_serv": 4903,
    "어요.": 4904,
    "_단": 4905,
    "_province": 4906,
    "_met": 4907,
    "_rel": 4908,
    "들의": 4909,
    "ating": 4910,
    "_사람": 4911,
    "_like": 4912,
    "old": 4913,
    "_qu": 4914,
    "iff": 4915,
    "_partic": 4916,
    "_좋": 4917,
    "_nor": 4918,
    "_mark": 4919,
    "_stud": 4920,
    "_sy": 4921,
    "_high": 4922,
    "_over": 4923,
    "ber": 4924,
    "_19": 4925,
    "_had": 4926,
    "-s": 4927,
    "_9": 4928,
    "_요": 4929,
    "cess": 4930,
    "chool": 4931,
    "_last": 4932,
    "_서울": 4933,
    "_person": 4934,
    "_mon": 4935,
    "_form": 4936,
    "ater": 4937,
    "_dr": 4938,
    "_들": 4939,
    "y.": 4940,
    "장이": 4941,
    "_밝": 4942,
    "_각": 4943,
    "_president": 4944,
    "_sm": 4945,
    "_support": 4946,
    "_school": 4947,
    "_memb": 4948,
    "_포": 4949,
    "_평": 4950,
    "_당신": 4951,
    "된다.": 4952,
    "_청": 4953,
    "ite": 4954,
    "ents": 4955,
    "ors": 4956,
    "enc": 4957,
    "ased": 4958,
    "_bo": 4959,
    "도록": 4960,
    "rop": 4961,
    "row": 4962,
    "_작": 4963,
    "ink": 4964,
    "_ed": 4965,
    "_dep": 4966,
    "ress": 4967,
    "_또": 4968,
    "the": 4969,
    "_경기도": 4970,
    "_che": 4971,
    "_them": 4972,
    "_diff": 4973,
    "_city": 4974,
    "),": 4975,
    "_busin": 4976,
    "ation,": 4977,
    "now": 4978,
    "_활": 4979,
    "위원": 4980,
    "_including": 4981,
    "_due": 4982,
    "_two": 4983,
    "_official": 4984,
    "iss": 4985,
    "-h": 4986,
    "_때문": 4987,
    "ing,": 4988,
    "_only": 4989,
    "입니다.": 4990,
    "_ref": 4991,
    "_indu": 4992,
    "gan": 4993,
    "_your": 4994,
    "ild": 4995,
    "velop": 4996,
    "_market": 4997,
    "man": 4998,
    "_함": 4999,
    "_br": 5000,
    "_따라": 5001,
    "_med": 5002,
    "_count": 5003,
    "_i'": 5004,
    "_지원": 5005,
    "_bu": 5006,
    "ep": 5007,
    "_north": 5008,
    "_금": 5009,
    "_report": 5010,
    "_bet": 5011,
    "_높": 5012,
    "ina": 5013,
    "_cr": 5014,
    "들은": 5015,
    "get": 5016,
    "_indust": 5017,
    "_가능": 5018,
    "_점": 5019,
    "ions": 5020,
    "_incre": 5021,
    "_지역": 5022,
    "_commit": 5023,
    "_develop": 5024,
    "ular": 5025,
    "_col": 5026,
    "_두": 5027,
    "_how": 5028,
    "_규": 5029,
    "_달": 5030,
    "ivers": 5031,
    "됐다.": 5032,
    "_집": 5033,
    "_des": 5034,
    "_project": 5035,
    "_even": 5036,
    "_물": 5037,
    "_educ": 5038,
    "lf": 5039,
    "_est": 5040,
    "_것이": 5041,
    "_since": 5042,
    "_이번": 5043,
    "_business": 5044,
    "tee": 5045,
    "av": 5046,
    "_sec": 5047,
    "_북": 5048,
    "stem": 5049,
    "하지": 5050,
    "_pur": 5051,
    "_char": 5052,
    "합니다.": 5053,
    "_dire": 5054,
    "oup": 5055,
    "_conf": 5056,
    "su": 5057,
    "_하는": 5058,
    "_미국": 5059,
    "uring": 5060,
    "_사업": 5061,
    "ural": 5062,
    ",000": 5063,
    "_held": 5064,
    "_pos": 5065,
    "ory": 5066,
    "_meet": 5067,
    "und": 5068,
    "_vis": 5069,
    "_통해": 5070,
    "_local": 5071,
    "_park": 5072,
    "ized": 5073,
    "_외": 5074,
    "_심": 5075,
    "ific": 5076,
    "_호": 5077,
    "abl": 5078,
    "_center": 5079,
    "_would": 5080,
    "_should": 5081,
    "_법": 5082,
    "_판": 5083,
    "ied": 5084,
    "_product": 5085,
    "_companies": 5086,
    "_plan": 5087,
    "_피": 5088,
    "_show": 5089,
    "_ass": 5090,
    "_못": 5091,
    "_expect": 5092,
    "_게": 5093,
    "_lee": 5094,
    "_system": 5095,
    "ility": 5096,
    "_many": 5097,
    "_관련": 5098,
    "ose": 5099,
    "_office": 5100,
    "_ind": 5101,
    "_함께": 5102,
    "ention": 5103,
    "_역": 5104,
    "_검": 5105,
    "_ann": 5106,
    "conom": 5107,
    "_any": 5108,
    "_앞": 5109,
    "_cult": 5110,
    "_committee": 5111,
    "_some": 5112,
    "_manage": 5113,
    "_증": 5114,
    "-gu": 5115,
    "_ins": 5116,
    "_나는": 5117,
    "_목": 5118,
    "며,": 5119,
    "_대해": 5120,
    "되는": 5121,
    "_명": 5122,
    "_car": 5123,
    "_say": 5124,
    "_밝혔": 5125,
    "_know": 5126,
    "_econom": 5127,
    "_accor": 5128,
    "_emp": 5129,
    "_위원": 5130,
    "ju": 5131,
    "o,": 5132,
    "_str": 5133,
    "ise": 5134,
    "_inte": 5135,
    "_ph": 5136,
    "_사용": 5137,
    "ood": 5138,
    "_아니": 5139,
    "에서는": 5140,
    "_처": 5141,
    "_산": 5142,
    "_30": 5143,
    "_trans": 5144,
    "_프": 5145,
    "_num": 5146,
    "ian": 5147,
    "ing.": 5148,
    "olog": 5149,
    "_month": 5150,
    "_11": 5151,
    "_rece": 5152,
    "_while": 5153,
    "_화": 5154,
    "reat": 5155,
    ",\"": 5156,
    "_soc": 5157,
    "_add": 5158,
    "_투": 5159,
    "는데": 5160,
    "icult": 5161,
    "_child": 5162,
    "xt": 5163,
    "_업": 5164,
    "_need": 5165,
    "_새": 5166,
    "_12": 5167,
    "_made": 5168,
    "_파": 5169,
    "pect": 5170,
    "_play": 5171,
    "_밝혔다.": 5172,
    "pt": 5173,
    "_team": 5174,
    "_임": 5175,
    "_direct": 5176,
    "_get": 5177,
    "자가": 5178,
    "사를": 5179,
    "_good": 5180,
    "_문제": 5181,
    "_rev": 5182,
    "_fac": 5183,
    "_fol": 5184,
    "ly,": 5185,
    "_협": 5186,
    "ange": 5187,
    "_want": 5188,
    "rest": 5189,
    "이라고": 5190,
    "_mat": 5191,
    "_what": 5192,
    "_into": 5193,
    "_particip": 5194,
    "mot": 5195,
    "mm": 5196,
    "day": 5197,
    "_민": 5198,
    "_conc": 5199,
    "icle": 5200,
    "_간": 5201,
    "gr": 5202,
    "기를": 5203,
    "_양": 5204,
    "_again": 5205,
    "_lead": 5206,
    "사가": 5207,
    "_진행": 5208,
    "_맞": 5209,
    "통령": 5210,
    "_perform": 5211,
    "_don": 5212,
    "_start": 5213,
    "_disc": 5214,
    "_visit": 5215,
    "_number": 5216,
    "_cor": 5217,
    "ouse": 5218,
    "_드": 5219,
    "ween": 5220,
    "sib": 5221,
    "_between": 5222,
    "_make": 5223,
    "_management": 5224,
    "_대통령": 5225,
    "_취": 5226,
    "_group": 5227,
    "_investig": 5228,
    "ience": 5229,
    "_real": 5230,
    "_party": 5231,
    "ization": 5232,
    "_있어": 5233,
    "_var": 5234,
    "_초": 5235,
    "_her": 5236,
    "_members": 5237,
    "_박": 5238,
    "ces": 5239,
    "장을": 5240,
    "_right": 5241,
    ".s.": 5242,
    "_변": 5243,
    "_dem": 5244,
    "_follow": 5245,
    "ax": 5246,
    "_총": 5247,
    "_생각": 5248,
    "_환": 5249,
    "_정부": 5250,
    "_gen": 5251,
    "_fam": 5252,
    "_chair": 5253,
    "ock": 5254,
    "_eff": 5255,
    "_organ": 5256,
    "_잘": 5257,
    "ank": 5258,
    "_fore": 5259,
    "_special": 5260,
    "_take": 5261,
    "ese": 5262,
    "up": 5263,
    "ize": 5264,
    "_너": 5265,
    "ason": 5266,
    "arch": 5267,
    "_je": 5268,
    "_police": 5269,
    "_world": 5270,
    "_use": 5271,
    "_체": 5272,
    "_운영": 5273,
    "_이상": 5274,
    "_15": 5275,
    "_cour": 5276,
    "way": 5277,
    "_중국": 5278,
    "_있습니다.": 5279,
    "_많은": 5280,
    "_ce": 5281,
    "에도": 5282,
    "_just": 5283,
    "_종": 5284,
    "_education": 5285,
    "-do": 5286,
    "_본": 5287,
    "_cre": 5288,
    "_service": 5289,
    "원이": 5290,
    "_del": 5291,
    "_관계": 5292,
    "_according": 5293,
    "_could": 5294,
    "_ear": 5295,
    "_위한": 5296,
    "들을": 5297,
    "_think": 5298,
    "artment": 5299,
    "fore": 5300,
    "_well": 5301,
    "_등을": 5302,
    "lement": 5303,
    "_대표": 5304,
    "_intern": 5305,
    "che": 5306,
    "_200": 5307,
    "_said,": 5308,
    "ife": 5309,
    "_aut": 5310,
    "_\"the": 5311,
    "_during": 5312,
    "_cur": 5313,
    "_기업": 5314,
    "ble": 5315,
    "자는": 5316,
    "_each": 5317,
    "_distr": 5318,
    "-p": 5319,
    "_resident": 5320,
    "_다음": 5321,
    "_sur": 5322,
    "_u.s.": 5323,
    "ick": 5324,
    "_comple": 5325,
    "itt": 5326,
    "ek": 5327,
    "iew": 5328,
    "_law": 5329,
    "_coun": 5330,
    "_ac": 5331,
    "_univers": 5332,
    "_음": 5333,
    "성이": 5334,
    "_establ": 5335,
    "_교육": 5336,
    "ures": 5337,
    "_가장": 5338,
    "_instit": 5339,
    "ital": 5340,
    "_requ": 5341,
    "_rele": 5342,
    "own": 5343,
    "_aff": 5344,
    "apan": 5345,
    "_이어": 5346,
    "_did": 5347,
    "_it's": 5348,
    "_order": 5349,
    "urn": 5350,
    "하여야": 5351,
    "_house": 5352,
    "_bl": 5353,
    "_저는": 5354,
    "_cho": 5355,
    "_year,": 5356,
    "aking": 5357,
    "보다": 5358,
    "_our": 5359,
    "_det": 5360,
    "_다른": 5361,
    "_fact": 5362,
    "_pay": 5363,
    "_데": 5364,
    "won": 5365,
    "_담": 5366,
    "ron": 5367,
    "_prev": 5368,
    "_now": 5369,
    "chn": 5370,
    "ission": 5371,
    "_구청": 5372,
    "_시간": 5373,
    "ward": 5374,
    "ful": 5375,
    "_minist": 5376,
    "_main": 5377,
    "ared": 5378,
    "_lar": 5379,
    "_promot": 5380,
    "_inform": 5381,
    "ute": 5382,
    "_prop": 5383,
    "ilities": 5384,
    "_next": 5385,
    "olit": 5386,
    "cond": 5387,
    "_emplo": 5388,
    "_most": 5389,
    "oon": 5390,
    "_말했다.": 5391,
    "_시작": 5392,
    "ation.": 5393,
    "pon": 5394,
    "_three": 5395,
    "_lot": 5396,
    "_techn": 5397,
    "ety": 5398,
    "_const": 5399,
    "_들어": 5400,
    "_살": 5401,
    "ract": 5402,
    "_found": 5403,
    "_being": 5404,
    "_같은": 5405,
    "_article": 5406,
    "_ple": 5407,
    "ower": 5408,
    "_근": 5409,
    "tc": 5410,
    "amp": 5411,
    "_것이다.": 5412,
    "ily": 5413,
    "_open": 5414,
    "ong-": 5415,
    "_했": 5416,
    "outh": 5417,
    "지는": 5418,
    "_japan": 5419,
    "_admin": 5420,
    "_ord": 5421,
    "_광": 5422,
    "_prof": 5423,
    "_oper": 5424,
    "_metrop": 5425,
    "olitan": 5426,
    "_polic": 5427,
    "_company": 5428,
    "_grow": 5429,
    "_ministry": 5430,
    "_뒤": 5431,
    "_metropolitan": 5432,
    "iving": 5433,
    "nam": 5434,
    "리는": 5435,
    "_before": 5436,
    "_administr": 5437,
    "회의": 5438,
    "ision": 5439,
    "사는": 5440,
    "_ter": 5441,
    "_하나": 5442,
    "wn": 5443,
    "eral": 5444,
    "_second": 5445,
    "_end": 5446,
    "_것은": 5447,
    "_찾": 5448,
    "alk": 5449,
    "_every": 5450,
    "ck": 5451,
    "a,": 5452,
    "_손": 5453,
    "ates": 5454,
    "였다.": 5455,
    "_싶": 5456,
    "ered": 5457,
    "_확인": 5458,
    "_place": 5459,
    "_것을": 5460,
    "ind": 5461,
    "ics": 5462,
    "았다.": 5463,
    "_약": 5464,
    "_result": 5465,
    "_design": 5466,
    "erg": 5467,
    "_sal": 5468,
    "_various": 5469,
    "기업": 5470,
    "이나": 5471,
    "_치": 5472,
    "ided": 5473,
    "n't": 5474,
    "_크": 5475,
    "ng": 5476,
    "_announ": 5477,
    "_했다.": 5478,
    "rap": 5479,
    "졌다.": 5480,
    "리를": 5481,
    "ly.": 5482,
    "거나": 5483,
    "_pa": 5484,
    "_development": 5485,
    "하면": 5486,
    "해야": 5487,
    "_necess": 5488,
    "_million": 5489,
    "ency": 5490,
    "_call": 5491,
    "wang": 5492,
    "_air": 5493,
    "ister": 5494,
    "_etc": 5495,
    "arm": 5496,
    "20": 5497,
    "_참여": 5498,
    "_경찰": 5499,
    "ven": 5500,
    "er,": 5501,
    "_contin": 5502,
    "_finan": 5503,
    "_번": 5504,
    "_ca": 5505,
    "시간": 5506,
    "기가": 5507,
    "_industry": 5508,
    "vers": 5509,
    "_친": 5510,
    "_이용": 5511,
    "_point": 5512,
    "_발생": 5513,
    "ft": 5514,
    "_interest": 5515,
    "ior": 5516,
    "_큰": 5517,
    "_타": 5518,
    "대로": 5519,
    "_i'm": 5520,
    "운데": 5521,
    "_줄": 5522,
    "th,": 5523,
    "_rem": 5524,
    "지만,": 5525,
    "_expected": 5526,
    "_food": 5527,
    "_준": 5528,
    "_small": 5529,
    "라고": 5530,
    "hip": 5531,
    "ting": 5532,
    "ved": 5533,
    "_event": 5534,
    "세요.": 5535,
    "_상황": 5536,
    "_언": 5537,
    "lp": 5538,
    "_chang": 5539,
    "ung-": 5540,
    "_etc.": 5541,
    "_adv": 5542,
    "_걸": 5543,
    "지고": 5544,
    "_she": 5545,
    "_rest": 5546,
    "_look": 5547,
    "센터": 5548,
    "_meeting": 5549,
    "ient": 5550,
    "ather": 5551,
    "_necessary": 5552,
    "_또는": 5553,
    "_university": 5554,
    "ers,": 5555,
    "_please": 5556,
    "_국내": 5557,
    "명이": 5558,
    "ices": 5559,
    "_commun": 5560,
    "ving": 5561,
    "리가": 5562,
    "ams": 5563,
    "_ret": 5564,
    "rib": 5565,
    "_결과": 5566,
    "ord": 5567,
    "_inf": 5568,
    "ering": 5569,
    "_합": 5570,
    "지를": 5571,
    "blem": 5572,
    "ret": 5573,
    "_tax": 5574,
    "_financial": 5575,
    "port": 5576,
    "_respon": 5577,
    "_가운데": 5578,
    "_former": 5579,
    "_problem": 5580,
    "_young": 5581,
    "_100": 5582,
    "_south": 5583,
    "_만들": 5584,
    "_set": 5585,
    "사업": 5586,
    "_hy": 5587,
    "_years": 5588,
    "_필요한": 5589,
    "_china": 5590,
    "_among": 5591,
    "_sit": 5592,
    "_세계": 5593,
    "les": 5594,
    "_아이": 5595,
    "_네": 5596,
    "_문화": 5597,
    "_sup": 5598,
    "lection": 5599,
    "다면": 5600,
    "sec": 5601,
    "_same": 5602,
    "_life": 5603,
    "_18": 5604,
    "_wom": 5605,
    "_case": 5606,
    "_def": 5607,
    "ited": 5608,
    "_sk": 5609,
    "_프로": 5610,
    "_saf": 5611,
    "_하고": 5612,
    "_buil": 5613,
    "_difficult": 5614,
    "alth": 5615,
    "riend": 5616,
    "_편": 5617,
    "_그는": 5618,
    "ries": 5619,
    "_창": 5620,
    "_help": 5621,
    "pr": 5622,
    "_이후": 5623,
    "위원회": 5624,
    "라는": 5625,
    "_카": 5626,
    "_채": 5627,
    "lear": 5628,
    "_따른": 5629,
    "_impro": 5630,
    "_표": 5631,
    "_자신": 5632,
    "_don't": 5633,
    "리고": 5634,
    "_rese": 5635,
    "_job": 5636,
    "_compet": 5637,
    "_wr": 5638,
    "_경제": 5639,
    "_속": 5640,
    "here": 5641,
    "_돌": 5642,
    "_다양": 5643,
    "_without": 5644,
    "rem": 5645,
    "_농": 5646,
    "_해당": 5647,
    "_충": 5648,
    "_날": 5649,
    "_지금": 5650,
    "uch": 5651,
    "_사회": 5652,
    "_복": 5653,
    "_opp": 5654,
    "_최근": 5655,
    "par": 5656,
    "_넘": 5657,
    "_sign": 5658,
    "_트": 5659,
    "_올해": 5660,
    "이라는": 5661,
    "하며": 5662,
    "tal": 5663,
    "_bro": 5664,
    "_13": 5665,
    "_논": 5666,
    "비스": 5667,
    "_때문에": 5668,
    "성을": 5669,
    "_있으": 5670,
    "_elect": 5671,
    "_own": 5672,
    "_<": 5673,
    "_곳": 5674,
    "기관": 5675,
    "_예정": 5676,
    "_par": 5677,
    "_전문": 5678,
    "_pass": 5679,
    "_technolog": 5680,
    "_students": 5681,
    "ruction": 5682,
    "_될": 5683,
    "_현재": 5684,
    "_possib": 5685,
    "_chairman": 5686,
    "_알려": 5687,
    "_독": 5688,
    "raph": 5689,
    "ave": 5690,
    "_등이": 5691,
    "_완": 5692,
    "ump": 5693,
    "read": 5694,
    "_exper": 5695,
    "_추진": 5696,
    "_pop": 5697,
    "_year.": 5698,
    "_court": 5699,
    "_department": 5700,
    "_제품": 5701,
    "_cas": 5702,
    "_diffe": 5703,
    "_children": 5704,
    "uss": 5705,
    "_produ": 5706,
    "시아": 5707,
    "_around": 5708,
    "_보고": 5709,
    "_ke": 5710,
    "_메": 5711,
    "lain": 5712,
    "_state": 5713,
    "-j": 5714,
    "_long": 5715,
    "서는": 5716,
    "ments": 5717,
    "_지난해": 5718,
    "_일본": 5719,
    "_governor": 5720,
    "ished": 5721,
    "_social": 5722,
    "_meas": 5723,
    "_사실": 5724,
    "_있도록": 5725,
    "ium": 5726,
    "_제1": 5727,
    "_way": 5728,
    "_삼": 5729,
    "정을": 5730,
    "_식": 5731,
    "_있을": 5732,
    "_대상": 5733,
    "_16": 5734,
    "cil": 5735,
    "_used": 5736,
    "_fil": 5737,
    "_back": 5738,
    "_economic": 5739,
    "_related": 5740,
    "기에": 5741,
    "_모두": 5742,
    "_see": 5743,
    "_home": 5744,
    "_env": 5745,
    "_14": 5746,
    "ruct": 5747,
    "_activ": 5748,
    "_승": 5749,
    "나요?": 5750,
    "되고": 5751,
    "ost": 5752,
    "ense": 5753,
    "_설명": 5754,
    "_많이": 5755,
    "_current": 5756,
    "erred": 5757,
    "ism": 5758,
    "_him": 5759,
    "uation": 5760,
    "_facilities": 5761,
    "ional": 5762,
    "화를": 5763,
    "_week": 5764,
    "onment": 5765,
    "_dae": 5766,
    "_eng": 5767,
    "_area": 5768,
    "_ma": 5769,
    "pe": 5770,
    "_특히": 5771,
    "ived": 5772,
    "-m": 5773,
    "_conduct": 5774,
    "_bud": 5775,
    "iod": 5776,
    "_care": 5777,
    "_북한": 5778,
    "_health": 5779,
    "_import": 5780,
    "_학생": 5781,
    "er.": 5782,
    "uk": 5783,
    "하면서": 5784,
    "_foreign": 5785,
    "_following": 5786,
    "력을": 5787,
    "_ye": 5788,
    "_information": 5789,
    "-y": 5790,
    "_온": 5791,
    "_늘": 5792,
    "_vi": 5793,
    "_gyeonggi-do": 5794,
    "_ordin": 5795,
    "_이날": 5796,
    "_접": 5797,
    "들에게": 5798,
    "_ob": 5799,
    "_period": 5800,
    "_있었": 5801,
    "_em": 5802,
    "_토": 5803,
    "abor": 5804,
    "_기대": 5805,
    "_fund": 5806,
    "osp": 5807,
    "_bel": 5808,
    "_25": 5809,
    "하다.": 5810,
    "_fire": 5811,
    "_repres": 5812,
    "ives": 5813,
    "_moon": 5814,
    "_폭": 5815,
    "omm": 5816,
    "_gang": 5817,
    "학교": 5818,
    "원을": 5819,
    "_provin": 5820,
    "_ra": 5821,
    "_envir": 5822,
    "ival": 5823,
    "_large": 5824,
    "_country": 5825,
    "ief": 5826,
    "_district": 5827,
    "_term": 5828,
    "_recent": 5829,
    "_먹": 5830,
    "_addition": 5831,
    "_국가": 5832,
    "_war": 5833,
    "_hand": 5834,
    "_다양한": 5835,
    "ale": 5836,
    "_minister": 5837,
    "_culture": 5838,
    "_council": 5839,
    "led": 5840,
    "_within": 5841,
    "_있다는": 5842,
    "_corp": 5843,
    "_stand": 5844,
    "_축": 5845,
    "_다시": 5846,
    "_four": 5847,
    "_environment": 5848,
    "th.": 5849,
    "_계획": 5850,
    "ants": 5851,
    "_much": 5852,
    "_정도": 5853,
    "_director": 5854,
    "_billion": 5855,
    "ix": 5856,
    "_then": 5857,
    "_mus": 5858,
    "_contro": 5859,
    "_없는": 5860,
    "_50": 5861,
    "ork": 5862,
    "_reason": 5863,
    "-f": 5864,
    "aining": 5865,
    "_affair": 5866,
    "하고,": 5867,
    "_tour": 5868,
    "_win": 5869,
    "_리": 5870,
    "_별": 5871,
    "_residents": 5872,
    "_attend": 5873,
    "_prosec": 5874,
    "_increase": 5875,
    "_represent": 5876,
    "_down": 5877,
    "스트": 5878,
    "_효": 5879,
    "_operation": 5880,
    "leg": 5881,
    "oth": 5882,
    "_이유": 5883,
    "_누": 5884,
    "_coop": 5885,
    "_향": 5886,
    "_제가": 5887,
    "cept": 5888,
    "_커": 5889,
    "_ask": 5890,
    "ne": 5891,
    "_관심": 5892,
    "_시장": 5893,
    "_책": 5894,
    "_performance": 5895,
    "_summ": 5896,
    "/s": 5897,
    "_sing": 5898,
    "ai": 5899,
    "_land": 5900,
    "_establish": 5901,
    "_17": 5902,
    "_power": 5903,
    "_pat": 5904,
    "rodu": 5905,
    "_(1": 5906,
    "_오늘": 5907,
    "_id": 5908,
    "인이": 5909,
    "other": 5910,
    "ope": 5911,
    "_설치": 5912,
    "_against": 5913,
    "_항": 5914,
    "_태": 5915,
    "어.": 5916,
    "ra": 5917,
    "_직접": 5918,
    "상을": 5919,
    "_general": 5920,
    "_내가": 5921,
    "ers.": 5922,
    "_절": 5923,
    "_redu": 5924,
    "_let": 5925,
    "on,": 5926,
    "its": 5927,
    "_눈": 5928,
    "_내용": 5929,
    "_construction": 5930,
    "_maj": 5931,
    "_포함": 5932,
    "_sus": 5933,
    "ns": 5934,
    "로운": 5935,
    "_check": 5936,
    "atic": 5937,
    "orts": 5938,
    "/she": 5939,
    "cent": 5940,
    "_price": 5941,
    "_he/she": 5942,
    "_fut": 5943,
    "_rate": 5944,
    "_provincial": 5945,
    "원은": 5946,
    "_홍": 5947,
    "_에": 5948,
    "ying": 5949,
    "_attention": 5950,
    "_형": 5951,
    "자의": 5952,
    "_관리": 5953,
    "_very": 5954,
    "_water": 5955,
    "_profess": 5956,
    "_tra": 5957,
    "_순": 5958,
    "_ve": 5959,
    "_total": 5960,
    "에요.": 5961,
    "_sol": 5962,
    "_제공": 5963,
    "_조사": 5964,
    "_process": 5965,
    "_prot": 5966,
    "_mid": 5967,
    "니까": 5968,
    "_평가": 5969,
    "_cap": 5970,
    "_international": 5971,
    "_referred": 5972,
    "_announced": 5973,
    "_secur": 5974,
    "ters": 5975,
    "르면": 5976,
    "ong,": 5977,
    "_주민": 5978,
    "_힘": 5979,
    "-t": 5980,
    "gest": 5981,
    "_코": 5982,
    "해서": 5983,
    "_사항": 5984,
    "교육": 5985,
    "_bank": 5986,
    "_구청장은": 5987,
    "_연구": 5988,
    "_whether": 5989,
    "시설": 5990,
    "_women": 5991,
    "_major": 5992,
    "ted": 5993,
    "_eas": 5994,
    "ached": 5995,
    "ems": 5996,
    "osed": 5997,
    "되어": 5998,
    "_cit": 5999,
    "_cost": 6000,
    "_those": 6001,
    "_request": 6002,
    "_come": 6003,
    "_ext": 6004,
    "_building": 6005,
    "_disp": 6006,
    "_jud": 6007,
    "vement": 6008,
    "_progr": 6009,
    "원의": 6010,
    "_labor": 6011,
    "ene": 6012,
    "_활동": 6013,
    "ised": 6014,
    "_does": 6015,
    "_stat": 6016,
    "_권": 6017,
    "_research": 6018,
    "iation": 6019,
    "_budget": 6020,
    "_future": 6021,
    "_공개": 6022,
    "_room": 6023,
    "_la": 6024,
    "_모든": 6025,
    "_된": 6026,
    "_corpor": 6027,
    "ally": 6028,
    "_범": 6029,
    "_account": 6030,
    "used": 6031,
    "_though": 6032,
    "_big": 6033,
    "ug": 6034,
    "_등의": 6035,
    "_feel": 6036,
    "_난": 6037,
    "_han": 6038,
    "ilit": 6039,
    "_cust": 6040,
    "_fl": 6041,
    "_these": 6042,
    "_book": 6043,
    "_갖": 6044,
    "_위하여": 6045,
    "-in": 6046,
    "들과": 6047,
    "(이": 6048,
    "ivate": 6049,
    "_effect": 6050,
    "_products": 6051,
    "_모습": 6052,
    "_aud": 6053,
    "semb": 6054,
    "_introdu": 6055,
    "_reported": 6056,
    "_기술": 6057,
    "기도": 6058,
    "ually": 6059,
    "_hum": 6060,
    "_investigation": 6061,
    "line": 6062,
    "_방문": 6063,
    ").": 6064,
    "_jae": 6065,
    "자를": 6066,
    "_why": 6067,
    "_피해": 6068,
    "_어려": 6069,
    "-k": 6070,
    "_24": 6071,
    "ings": 6072,
    "_끝": 6073,
    "agraph": 6074,
    "적이": 6075,
    "ield": 6076,
    "_ser": 6077,
    "_국민": 6078,
    "레이": 6079,
    "_particular": 6080,
    "ys": 6081,
    "eas": 6082,
    "_post": 6083,
    "_song": 6084,
    "_commission": 6085,
    "_become": 6086,
    "ec": 6087,
    "_going": 6088,
    "_갈": 6089,
    "_얼": 6090,
    "ality": 6091,
    "_tim": 6092,
    "_참석": 6093,
    "_low": 6094,
    "_개발": 6095,
    "_마련": 6096,
    "그램": 6097,
    "_군": 6098,
    "_talk": 6099,
    "_custom": 6100,
    "_이를": 6101,
    "_안전": 6102,
    "_버": 6103,
    "_영화": 6104,
    "_디": 6105,
    "\"이라고": 6106,
    "의를": 6107,
    "_assemb": 6108,
    "_좋은": 6109,
    "_friend": 6110,
    "으면": 6111,
    "_val": 6112,
    "_lim": 6113,
    "_past": 6114,
    "_mar": 6115,
    "_implement": 6116,
    "_applic": 6117,
    "_change": 6118,
    "_happ": 6119,
    "_사이": 6120,
    "_occ": 6121,
    "_different": 6122,
    "_정보": 6123,
    "_ful": 6124,
    "력이": 6125,
    "bo": 6126,
    "ver,": 6127,
    "_벌": 6128,
    "_cultural": 6129,
    "_charge": 6130,
    "hing": 6131,
    "_나타": 6132,
    "_today": 6133,
    "_lib": 6134,
    "_concer": 6135,
    "_sent": 6136,
    "관리": 6137,
    "_great": 6138,
    "장의": 6139,
    "_policy": 6140,
    "_처음": 6141,
    "_bas": 6142,
    "_학교": 6143,
    "_질": 6144,
    "_mod": 6145,
    "식을": 6146,
    "도가": 6147,
    "ral": 6148,
    "ts": 6149,
    "_정책": 6150,
    "하겠": 6151,
    "_ordinance": 6152,
    "_safety": 6153,
    "_않는": 6154,
    "기는": 6155,
    "_consid": 6156,
    "_working": 6157,
    "_따르면": 6158,
    "_첫": 6159,
    "에서도": 6160,
    "fter": 6161,
    "_amount": 6162,
    "처럼": 6163,
    "land": 6164,
    "_unt": 6165,
    "_글": 6166,
    "_발표": 6167,
    "alf": 6168,
    "_베": 6169,
    "_중요": 6170,
    "_toget": 6171,
    "_together": 6172,
    "부가": 6173,
    "_allow": 6174,
    "rence": 6175,
    "ion,": 6176,
    "_days": 6177,
    "_조례": 6178,
    "_class": 6179,
    "reen": 6180,
    "_institution": 6181,
    "(이하": 6182,
    "_trade": 6183,
    "hor": 6184,
    "_best": 6185,
    "_느": 6186,
    "_rul": 6187,
    "heon": 6188,
    "_based": 6189,
    "_test": 6190,
    "_it.": 6191,
    "_브": 6192,
    "_div": 6193,
    "_dom": 6194,
    "_percent": 6195,
    "_서비스": 6196,
    "_korea,": 6197,
    "다)": 6198,
    "_허": 6199,
    "_select": 6200,
    "_private": 6201,
    "an,": 6202,
    "_until": 6203,
    "_provid": 6204,
    "ath": 6205,
    "iven": 6206,
    "_오후": 6207,
    "_아니라": 6208,
    "_citiz": 6209,
    "_21": 6210,
    "oint": 6211,
    "_run": 6212,
    "_용": 6213,
    "io": 6214,
    "_dam": 6215,
    "_sim": 6216,
    "_fest": 6217,
    "_사건": 6218,
    "지가": 6219,
    "사의": 6220,
    "_continu": 6221,
    "_hard": 6222,
    "_agree": 6223,
    "_gwang": 6224,
    "_means": 6225,
    "_빠": 6226,
    "_pursu": 6227,
    "_40": 6228,
    "_hol": 6229,
    "irm": 6230,
    "_express": 6231,
    "수가": 6232,
    "_activities": 6233,
    "_결정": 6234,
    "_hour": 6235,
    "ric": 6236,
    "_너무": 6237,
    "_secret": 6238,
    "-b": 6239,
    "_좋아": 6240,
    "_증가": 6241,
    "_family": 6242,
    "_전망": 6243,
    "_store": 6244,
    "_anal": 6245,
    "_우리는": 6246,
    "_level": 6247,
    "tern": 6248,
    "_사진": 6249,
    "uty": 6250,
    "_here": 6251,
    "문화": 6252,
    "_당시": 6253,
    "bal": 6254,
    "oo": 6255,
    "gu": 6256,
    "_시행": 6257,
    "_affairs": 6258,
    "_23": 6259,
    "_festival": 6260,
    "_neg": 6261,
    "_strong": 6262,
    "_분석": 6263,
    "_기록": 6264,
    "ocr": 6265,
    "_여러": 6266,
    "_투자": 6267,
    "_규정": 6268,
    "ature": 6269,
    "했다고": 6270,
    "_측": 6271,
    "_issu": 6272,
    "_crit": 6273,
    "_explain": 6274,
    "_급": 6275,
    "_prep": 6276,
    "_금융": 6277,
    "단체": 6278,
    "_equ": 6279,
    "stand": 6280,
    ".5": 6281,
    "_countries": 6282,
    "_matters": 6283,
    "지역": 6284,
    "_볼": 6285,
    "은행": 6286,
    "_provide": 6287,
    "_있다고": 6288,
    "_possible": 6289,
    "-c": 6290,
    "_active": 6291,
    "inafter": 6292,
    "회를": 6293,
    "m.": 6294,
    "_time,": 6295,
    "ired": 6296,
    "_fun": 6297,
    "_put": 6298,
    "mber": 6299,
    "_27": 6300,
    "_산업": 6301,
    "_leg": 6302,
    "though": 6303,
    "_glo": 6304,
    "_assoc": 6305,
    "_game": 6306,
    "이는": 6307,
    "_ur": 6308,
    "_부산": 6309,
    "_다만": 6310,
    "ies,": 6311,
    "_ap": 6312,
    "_병": 6313,
    "_면": 6314,
    "_civ": 6315,
    "_areas": 6316,
    "e,": 6317,
    "_free": 6318,
    "_welf": 6319,
    "_welfare": 6320,
    "_cert": 6321,
    "_예산": 6322,
    "_experience": 6323,
    "_although": 6324,
    "_판매": 6325,
    "hereinafter": 6326,
    "_여성": 6327,
    "_준비": 6328,
    "ugh": 6329,
    "ned": 6330,
    "_hous": 6331,
    "akes": 6332,
    "_regard": 6333,
    "_업무": 6334,
    "_경우에는": 6335,
    "li": 6336,
    "_dat": 6337,
    "_technology": 6338,
    "_list": 6339,
    "_동안": 6340,
    "_author": 6341,
    "_신청": 6342,
    "_cond": 6343,
    "_jung": 6344,
    "amsung": 6345,
    "_subs": 6346,
    "_보내": 6347,
    "_hot": 6348,
    "_investment": 6349,
    "ising": 6350,
    "_flo": 6351,
    "했던": 6352,
    "_inspect": 6353,
    "_top": 6354,
    "_추가": 6355,
    "왔다.": 6356,
    "_로": 6357,
    "금을": 6358,
    "_confirm": 6359,
    "_milit": 6360,
    "회가": 6361,
    "_때문이다.": 6362,
    "해요.": 6363,
    "_22": 6364,
    "_일부": 6365,
    "_정상": 6366,
    "_관한": 6367,
    "_fall": 6368,
    "_개최": 6369,
    "_give": 6370,
    "_officials": 6371,
    "_(hereinafter": 6372,
    "_열린": 6373,
    "주시": 6374,
    "_구성": 6375,
    "_employe": 6376,
    "_old": 6377,
    "_실시": 6378,
    "_employ": 6379,
    "_democr": 6380,
    "_five": 6381,
    "_mone": 6382,
    "_received": 6383,
    "anc": 6384,
    "_member": 6385,
    "_using": 6386,
    "_어떤": 6387,
    "_친구": 6388,
    "_nam": 6389,
    "_accident": 6390,
    "self": 6391,
    "_manag": 6392,
    "atch": 6393,
    "vant": 6394,
    "_\"we": 6395,
    "_한다)": 6396,
    "_기준": 6397,
    "_security": 6398,
    "씨가": 6399,
    "_fr": 6400,
    "_않은": 6401,
    "_military": 6402,
    "_popular": 6403,
    "_hope": 6404,
    "i,": 6405,
    "_높은": 6406,
    "_demand": 6407,
    "_z": 6408,
    "_만큼": 6409,
    "_expens": 6410,
    "_samsung": 6411,
    "_새로운": 6412,
    "_특별": 6413,
    "_temp": 6414,
    "_important": 6415,
    "_chin": 6416,
    "work": 6417,
    "ified": 6418,
    "_요구": 6419,
    "_human": 6420,
    "ront": 6421,
    "omet": 6422,
    "jo": 6423,
    "_환경": 6424,
    "ulation": 6425,
    "_exc": 6426,
    "_확대": 6427,
    "_transport": 6428,
    "_않았": 6429,
    "_hosp": 6430,
    "_election": 6431,
    "_공동": 6432,
    "_viol": 6433,
    "mor": 6434,
    "_hist": 6435,
    "_time.": 6436,
    "인을": 6437,
    "_record": 6438,
    "_등에": 6439,
    "aring": 6440,
    "_받아": 6441,
    "_still": 6442,
    "가는": 6443,
    "_expand": 6444,
    "no": 6445,
    "_hospital": 6446,
    "_present": 6447,
    "서를": 6448,
    "특별": 6449,
    "_able": 6450,
    "_particular,": 6451,
    "ten": 6452,
    "_music": 6453,
    "_wa": 6454,
    "_영향": 6455,
    "ling": 6456,
    "_trad": 6457,
    "_half": 6458,
    "ion.": 6459,
    "_공연": 6460,
    "_전국": 6461,
    "ification": 6462,
    "_chinese": 6463,
    "_exch": 6464,
    "_28": 6465,
    "페이": 6466,
    "_subm": 6467,
    "hib": 6468,
    "_이런": 6469,
    "_길": 6470,
    "_이미": 6471,
    "_vol": 6472,
    "_global": 6473,
    "'을": 6474,
    "_26": 6475,
    "_medical": 6476,
    "_howe": 6477,
    "_쓰": 6478,
    "_lear": 6479,
    "erty": 6480,
    "san": 6481,
    "_잡": 6482,
    "_enter": 6483,
    "_보인": 6484,
    "crib": 6485,
    "_left": 6486,
    "_film": 6487,
    "_sales": 6488,
    "_too": 6489,
    "_합니다.": 6490,
    "치를": 6491,
    "_japanese": 6492,
    "rial": 6493,
    "_polit": 6494,
    "ph": 6495,
    "je": 6496,
    "_increas": 6497,
    "ment,": 6498,
    "_opin": 6499,
    "_field": 6500,
    "_가격": 6501,
    "_지방": 6502,
    "uclear": 6503,
    "관이": 6504,
    "_media": 6505,
    "_organization": 6506,
    "_2018": 6507,
    "sue": 6508,
    "_expert": 6509,
    "_came": 6510,
    "estic": 6511,
    "_라": 6512,
    "_near": 6513,
    "_province,": 6514,
    "_중심": 6515,
    "_프로그램": 6516,
    "_막": 6517,
    "ner": 6518,
    "_discuss": 6519,
    "az": 6520,
    "도를": 6521,
    "_condition": 6522,
    "_당신은": 6523,
    "_검찰": 6524,
    "_ste": 6525,
    "_however,": 6526,
    "_가족": 6527,
    "_과정": 6528,
    "yang": 6529,
    "_press": 6530,
    "_예상": 6531,
    "_il": 6532,
    "_국제": 6533,
    "항에": 6534,
    "_pursuant": 6535,
    "inal": 6536,
    "ists": 6537,
    "_지급": 6538,
    "_애": 6539,
    "_emerg": 6540,
    "_road": 6541,
    "_도시": 6542,
    "_making": 6543,
    "_send": 6544,
    "제로": 6545,
    "료를": 6546,
    "기로": 6547,
    "_최대": 6548,
    "럼프": 6549,
    "\",": 6550,
    "_hig": 6551,
    "_철": 6552,
    "aster": 6553,
    "_ty": 6554,
    "_mov": 6555,
    "_institute": 6556,
    "un,": 6557,
    "_bod": 6558,
    "_시민": 6559,
    "_contract": 6560,
    "ceed": 6561,
    "_busan": 6562,
    "_대학": 6563,
    "_decided": 6564,
    "rw": 6565,
    "_행정": 6566,
    "_dong": 6567,
    "_삼성": 6568,
    "_news": 6569,
    "_program": 6570,
    "_낮": 6571,
    "다\"며": 6572,
    "_measures": 6573,
    "산업": 6574,
    "_find": 6575,
    "ird": 6576,
    "_mor": 6577,
    "_trump": 6578,
    "났다.": 6579,
    "_어떻": 6580,
    "ried": 6581,
    "_행사": 6582,
    "_site": 6583,
    "_사고": 6584,
    "ctor": 6585,
    "_took": 6586,
    "ator": 6587,
    "_당신이": 6588,
    "_short": 6589,
    "어나": 6590,
    "자들이": 6591,
    "_백": 6592,
    "지원": 6593,
    "_entr": 6594,
    "app": 6595,
    "_assembly": 6596,
    "_보여": 6597,
    "co": 6598,
    "_phot": 6599,
    "ructure": 6600,
    "_return": 6601,
    "_된다.": 6602,
    "_read": 6603,
    "_\"i": 6604,
    "_data": 6605,
    "_배우": 6606,
    "_domestic": 6607,
    "_감사": 6608,
    "_veh": 6609,
    "_ju": 6610,
    "_기존": 6611,
    "_개선": 6612,
    "_standard": 6613,
    "den": 6614,
    "_월": 6615,
    "ination": 6616,
    "_활용": 6617,
    "_선정": 6618,
    "_doc": 6619,
    "_야": 6620,
    "_representative": 6621,
    "_shin": 6622,
    "_appro": 6623,
    "_1,": 6624,
    "_line": 6625,
    "_어떻게": 6626,
    "_패": 6627,
    "_송": 6628,
    "장에서": 6629,
    "데,": 6630,
    "_live": 6631,
    "_net": 6632,
    "_purp": 6633,
    "_골": 6634,
    "_jun": 6635,
    "했습니다.": 6636,
    "_charact": 6637,
    "대표": 6638,
    "-gu,": 6639,
    "_폐": 6640,
    "_관계자는": 6641,
    "eng": 6642,
    "_mater": 6643,
    "_protect": 6644,
    "_paragraph": 6645,
    "ages": 6646,
    "bs": 6647,
    "_docu": 6648,
    "-ch": 6649,
    "상이": 6650,
    "osition": 6651,
    "_once": 6652,
    "_agency": 6653,
    "_제출": 6654,
    "_트럼프": 6655,
    "안을": 6656,
    "으며": 6657,
    "_early": 6658,
    "_감독": 6659,
    "_시설": 6660,
    "_선수": 6661,
    "_vill": 6662,
    "_혐": 6663,
    "_industrial": 6664,
    "_situation": 6665,
    "_quest": 6666,
    "위를": 6667,
    "lish": 6668,
    "_마음": 6669,
    "_famil": 6670,
    "겠습니다.": 6671,
    "_complex": 6672,
    "_오전": 6673,
    "_exam": 6674,
    "_name": 6675,
    "_chief": 6676,
    "_krw": 6677,
    "_apply": 6678,
    "랜드": 6679,
    "_인정": 6680,
    "_mayor": 6681,
    "계획": 6682,
    "장에": 6683,
    "_eval": 6684,
    "_2016": 6685,
    "_고객": 6686,
    "person": 6687,
    "_cand": 6688,
    "_relevant": 6689,
    "_belie": 6690,
    "_의견": 6691,
    "_deter": 6692,
    "_응": 6693,
    "_issue": 6694,
    "iety": 6695,
    "_계속": 6696,
    "_install": 6697,
    "_civil": 6698,
    "_self": 6699,
    "_수도": 6700,
    "제를": 6701,
    "_오는": 6702,
    "_cooperation": 6703,
    "ony": 6704,
    "_휴": 6705,
    "_love": 6706,
    "_최고": 6707,
    "hold": 6708,
    "_workers": 6709,
    "201": 6710,
    "_bre": 6711,
    "not": 6712,
    "_즐": 6713,
    "_그러": 6714,
    "_생산": 6715,
    "_chung": 6716,
    "_않아": 6717,
    "_student": 6718,
    "_exec": 6719,
    "_vice": 6720,
    "_자유": 6721,
    "_극": 6722,
    "cast": 6723,
    "_competition": 6724,
    "_imm": 6725,
    "_찾아": 6726,
    "명의": 6727,
    "_지속": 6728,
    "_규모": 6729,
    "nd": 6730,
    "_소비": 6731,
    "기술": 6732,
    "_administration": 6733,
    "_sen": 6734,
    "_제2": 6735,
    "_treat": 6736,
    "_기간": 6737,
    "_front": 6738,
    "_prevent": 6739,
    "reng": 6740,
    "'를": 6741,
    "었습니다.": 6742,
    "ness": 6743,
    "이고": 6744,
    "ances": 6745,
    "_cases": 6746,
    "als": 6747,
    "_material": 6748,
    "_joint": 6749,
    "_이야": 6750,
    "_주요": 6751,
    "인의": 6752,
    "oll": 6753,
    "_farm": 6754,
    "_인터": 6755,
    "_card": 6756,
    "_같아": 6757,
    "ex": 6758,
    "_요청": 6759,
    ".1": 6760,
    "_분야": 6761,
    "_streng": 6762,
    "_saying": 6763,
    "tion": 6764,
    "_hall": 6765,
    "어서": 6766,
    "니까?": 6767,
    "_attached": 6768,
    "\"이라": 6769,
    "_잠": 6770,
    "iting": 6771,
    "가요?": 6772,
    "_vide": 6773,
    "_stock": 6774,
    "_적용": 6775,
    "_29": 6776,
    "_review": 6777,
    "명을": 6778,
    "_좀": 6779,
    "_foc": 6780,
    "부는": 6781,
    "_growth": 6782,
    "_이뤄": 6783,
    "_must": 6784,
    "_view": 6785,
    "ies.": 6786,
    "_부분": 6787,
    "_eu": 6788,
    "nel": 6789,
    "장과": 6790,
    "_called": 6791,
    "_appoint": 6792,
    "_led": 6793,
    "되지": 6794,
    "_우려": 6795,
    "30": 6796,
    "_팀": 6797,
    "_않고": 6798,
    "_나온": 6799,
    "_후보": 6800,
    "ateg": 6801,
    ".m.": 6802,
    "_생활": 6803,
    "_몰": 6804,
    "_full": 6805,
    "_im": 6806,
    "_테": 6807,
    "_prosecution": 6808,
    "_spec": 6809,
    "lin": 6810,
    "렇게": 6811,
    "_발전": 6812,
    "_대통령이": 6813,
    "_31": 6814,
    "_사랑": 6815,
    "_vict": 6816,
    "_organiz": 6817,
    "동안": 6818,
    "_나오": 6819,
    "_enjo": 6820,
    "ible": 6821,
    "_succ": 6822,
    "_건강": 6823,
    "_그것": 6824,
    "ched": 6825,
    "_떨": 6826,
    "_bur": 6827,
    "_경쟁": 6828,
    "소년": 6829,
    "_만들어": 6830,
    "_전체": 6831,
    "는데,": 6832,
    "_community": 6833,
    "_promotion": 6834,
    "_없이": 6835,
    "_받은": 6836,
    "_alread": 6837,
    "특별시": 6838,
    "_노동": 6839,
    "_season": 6840,
    "_susp": 6841,
    "_increased": 6842,
    "부를": 6843,
    "_있었다.": 6844,
    "_hold": 6845,
    "_공공": 6846,
    "dle": 6847,
    "연구": 6848,
    "s.\"": 6849,
    "ately": 6850,
    "_exhib": 6851,
    "_판단": 6852,
    "_attract": 6853,
    "_그녀": 6854,
    "ars": 6855,
    "_외국": 6856,
    "_consult": 6857,
    "_incheon": 6858,
    "_share": 6859,
    "ee": 6860,
    "_av": 6861,
    "less": 6862,
    "tain": 6863,
    "ricult": 6864,
    "까요?": 6865,
    "_비롯": 6866,
    "_administrative": 6867,
    "으나": 6868,
    "_상태": 6869,
    "isting": 6870,
    "_참가": 6871,
    "_아직": 6872,
    "_side": 6873,
    ")가": 6874,
    "도로": 6875,
    "_있어요.": 6876,
    "_el": 6877,
    "ros": 6878,
    "_cerem": 6879,
    "_went": 6880,
    "_어느": 6881,
    "_broad": 6882,
    "다가": 6883,
    "_both": 6884,
    "_적극": 6885,
    "_사람이": 6886,
    "_purch": 6887,
    "_agricult": 6888,
    "_established": 6889,
    "_의미": 6890,
    "_agreement": 6891,
    "_parent": 6892,
    "_강조": 6893,
    "_\"s": 6894,
    "_candid": 6895,
    "_해외": 6896,
    "_communic": 6897,
    "_인천": 6898,
    "스템": 6899,
    "_plans": 6900,
    "정이": 6901,
    "_money": 6902,
    "_방송": 6903,
    "_pain": 6904,
    "_times": 6905,
    "_mean": 6906,
    "회담": 6907,
    "_콘": 6908,
    "한국": 6909,
    "장,": 6910,
    "_지적": 6911,
    "_soon": 6912,
    "_공무": 6913,
    "\")": 6914,
    "_노력": 6915,
    "_고려": 6916,
    "_관광": 6917,
    "_60": 6918,
    "_subject": 6919,
    "_수사": 6920,
    "urance": 6921,
    "_subsid": 6922,
    "마트": 6923,
    "_secretary": 6924,
    "_귀": 6925,
    "a.": 6926,
    "_summit": 6927,
    "대가": 6928,
    "'는": 6929,
    "하거나": 6930,
    "_draw": 6931,
    "_station": 6932,
    "ins": 6933,
    "_less": 6934,
    ".2": 6935,
    "_choi": 6936,
    "_예정이다.": 6937,
    "_korea.": 6938,
    "_middle": 6939,
    "_employment": 6940,
    "_citizens": 6941,
    "_떠": 6942,
    "_paid": 6943,
    "_services": 6944,
    "_beg": 6945,
    "_바로": 6946,
    "_방법": 6947,
    "_already": 6948,
    "_주장": 6949,
    "_이해": 6950,
    "_democratic": 6951,
    "_설명했다.": 6952,
    "_receive": 6953,
    "_sex": 6954,
    "_consum": 6955,
    "/her": 6956,
    "_day,": 6957,
    "_award": 6958,
    "_천": 6959,
    "하려": 6960,
    "_face": 6961,
    "ged": 6962,
    "하다고": 6963,
    "주의": 6964,
    "_개인": 6965,
    "_results": 6966,
    "ffic": 6967,
    "원에": 6968,
    "_another": 6969,
    "cement": 6970,
    "_팬": 6971,
    "스를": 6972,
    "_previous": 6973,
    "_relations": 6974,
    "_fail": 6975,
    "_2017": 6976,
    "ds": 6977,
    "_detail": 6978,
    "reme": 6979,
    "_purpose": 6980,
    "_morning": 6981,
    "oot": 6982,
    "_released": 6983,
    "aim": 6984,
    "_grad": 6985,
    "_같이": 6986,
    "_floor": 6987,
    "_along": 6988,
    "_효과": 6989,
    "_없다.": 6990,
    "aek": 6991,
    "부분": 6992,
    "-pop": 6993,
    "_먼": 6994,
    "_living": 6995,
    "_sw": 6996,
    "시는": 6997,
    "_occur": 6998,
    "_can't": 6999,
    "물을": 7000,
    "_수준": 7001,
    "_seems": 7002,
    "_그런": 7003,
    "_reve": 7004,
    "밖에": 7005,
    "_camp": 7006,
    "_got": 7007,
    "_일반": 7008,
    "환경": 7009,
    "_insurance": 7010,
    "_더욱": 7011,
    "ty": 7012,
    "inc": 7013,
    "_non": 7014,
    "동차": 7015,
    "_어린": 7016,
    "_production": 7017,
    ")이": 7018,
    "_hong": 7019,
    "_economy": 7020,
    "_보인다.": 7021,
    "체가": 7022,
    "_shop": 7023,
    "_그리고": 7024,
    "_블": 7025,
    "_가능성이": 7026,
    "_create": 7027,
    "이터": 7028,
    "erence": 7029,
    "_여행": 7030,
    "으며,": 7031,
    "렸다.": 7032,
    "_korea's": 7033,
    "_final": 7034,
    "_yang": 7035,
    "ended": 7036,
    "_laun": 7037,
    "_delib": 7038,
    "_participate": 7039,
    "aken": 7040,
    "주는": 7041,
    "ension": 7042,
    "do": 7043,
    "리에": 7044,
    "fact": 7045,
    "_cannot": 7046,
    "시에": 7047,
    "_성공": 7048,
    "_집중": 7049,
    "_떨어": 7050,
    "_success": 7051,
    "라도": 7052,
    "le,": 7053,
    "개월": 7054,
    "wan": 7055,
    "_소속": 7056,
    "_said.": 7057,
    "_정말": 7058,
    "_night": 7059,
    "_아닌": 7060,
    "_남북": 7061,
    "_united": 7062,
    "_ky": 7063,
    ".3": 7064,
    "head": 7065,
    "하도록": 7066,
    "_meth": 7067,
    "_i'll": 7068,
    "_projects": 7069,
    "_recomm": 7070,
    "_플": 7071,
    "_돌아": 7072,
    "_차량": 7073,
    "ream": 7074,
    "_몇": 7075,
    "_지정": 7076,
    "_gam": 7077,
    "_핵": 7078,
    "_travel": 7079,
    "_dram": 7080,
    "_jin": 7081,
    "e.": 7082,
    "_국회": 7083,
    "_position": 7084,
    "_정부가": 7085,
    "_k-pop": 7086,
    "_surve": 7087,
    "_쉽": 7088,
    "_만나": 7089,
    "정보": 7090,
    "됩니다.": 7091,
    "ks": 7092,
    "utes": 7093,
    "ipp": 7094,
    "_electron": 7095,
    "_호의": 7096,
    "_답": 7097,
    "-r": 7098,
    "_sl": 7099,
    "_악": 7100,
    "_sun": 7101,
    "_전문가": 7102,
    "_상품": 7103,
    "_강화": 7104,
    "_무엇": 7105,
    "avor": 7106,
    "케이": 7107,
    "_2015": 7108,
    "_somet": 7109,
    "이에요.": 7110,
    "_distrib": 7111,
    "let": 7112,
    "일까지": 7113,
    "_pen": 7114,
    "_late": 7115,
    "_신고": 7116,
    "_해결": 7117,
    "_tell": 7118,
    "_받고": 7119,
    "_port": 7120,
    "cheon": 7121,
    "_일자": 7122,
    "itive": 7123,
    "_es": 7124,
    "_199": 7125,
    "_keep": 7126,
    "제가": 7127,
    "_대상으로": 7128,
    "_맡": 7129,
    "_exhibition": 7130,
    "_문제가": 7131,
    "_왜": 7132,
    "_얻": 7133,
    "점을": 7134,
    "ending": 7135,
    "스가": 7136,
    "_method": 7137,
    "_cheong": 7138,
    "_ge": 7139,
    "_away": 7140,
    "_tar": 7141,
    "irc": 7142,
    "hes": 7143,
    "_존": 7144,
    "_육": 7145,
    "_taking": 7146,
    "lose": 7147,
    "식이": 7148,
    "_payment": 7149,
    "요,": 7150,
    "-so": 7151,
    "_도지": 7152,
    "의회": 7153,
    "com": 7154,
    "_central": 7155,
    "_되는": 7156,
    "_english": 7157,
    "ortun": 7158,
    "_conducted": 7159,
    "_정치": 7160,
    "지에": 7161,
    "_엄": 7162,
    "_얼마": 7163,
    "_것입니다.": 7164,
    "_tradition": 7165,
    "_understand": 7166,
    "_critic": 7167,
    "_arr": 7168,
    "_tv": 7169,
    "_men": 7170,
    "nov": 7171,
    "_조성": 7172,
    "수를": 7173,
    "사와": 7174,
    "_것\"이라고": 7175,
    "_경험": 7176,
    "_역할": 7177,
    "_turn": 7178,
    "_overs": 7179,
    "_tas": 7180,
    "_pract": 7181,
    "동을": 7182,
    "iqu": 7183,
    "자인": 7184,
    "_buy": 7185,
    "ger": 7186,
    "이가": 7187,
    "_selected": 7188,
    "일부터": 7189,
    "_청와": 7190,
    "억원": 7191,
    "_professor": 7192,
    "_became": 7193,
    "_긴": 7194,
    "_claim": 7195,
    "대를": 7196,
    "_매우": 7197,
    "이트": 7198,
    "_reveal": 7199,
    "자로": 7200,
    "_better": 7201,
    "_appl": 7202,
    "조에": 7203,
    "화가": 7204,
    "_date": 7205,
    "씨는": 7206,
    "term": 7207,
    "움을": 7208,
    "_control": 7209,
    "rd": 7210,
    "업을": 7211,
    "_agenc": 7212,
    "_continue": 7213,
    "_improve": 7214,
    "_separ": 7215,
    "_third": 7216,
    "_0": 7217,
    "-e": 7218,
    "_income": 7219,
    "주당": 7220,
    "_스타": 7221,
    "_you.": 7222,
    "_training": 7223,
    "_den": 7224,
    "_부담": 7225,
    "_펼": 7226,
    "조제": 7227,
    "-hy": 7228,
    "_six": 7229,
    "_이에": 7230,
    "_collect": 7231,
    "oung": 7232,
    "_execut": 7233,
    "_머": 7234,
    "_energ": 7235,
    "ivid": 7236,
    "ier": 7237,
    "_때에는": 7238,
    "_회의": 7239,
    "iver": 7240,
    "_space": 7241,
    "_rights": 7242,
    "임을": 7243,
    "_sold": 7244,
    "_prescrib": 7245,
    "reet": 7246,
    "_enjoy": 7247,
    "마다": 7248,
    "_주문": 7249,
    "_senior": 7250,
    "_teac": 7251,
    "_우리가": 7252,
    "_likely": 7253,
    "_march": 7254,
    "_맛": 7255,
    "hn": 7256,
    ".4": 7257,
    "_base": 7258,
    "_asked": 7259,
    "50": 7260,
    "'이": 7261,
    "nect": 7262,
    "_의혹": 7263,
    "_visited": 7264,
    "_구매": 7265,
    "치는": 7266,
    "_돈": 7267,
    "_gwangju": 7268,
    "_beh": 7269,
    "주세요.": 7270,
    "_이것": 7271,
    "_말한다.": 7272,
    "_성장": 7273,
    "_orig": 7274,
    "_located": 7275,
    "_작품": 7276,
    "_chur": 7277,
    "_audit": 7278,
    "_application": 7279,
    "ored": 7280,
    "_있다\"고": 7281,
    "_대부분": 7282,
    "_당신의": 7283,
    "_circ": 7284,
    "rug": 7285,
    "ify": 7286,
    "_앞으로": 7287,
    "_(2": 7288,
    "_ris": 7289,
    "_analy": 7290,
    "_희": 7291,
    "izing": 7292,
    "_유지": 7293,
    "_sell": 7294,
    "_\"it": 7295,
    "_exchange": 7296,
    "_kang": 7297,
    "_확보": 7298,
    "_mob": 7299,
    "_er": 7300,
    "_mot": 7301,
    "_돼": 7302,
    "_놓": 7303,
    "개발": 7304,
    "aur": 7305,
    "_풍": 7306,
    "_비용": 7307,
    "구청": 7308,
    "_sports": 7309,
    ".6": 7310,
    "_보도": 7311,
    "_드러": 7312,
    "기간": 7313,
    "야.": 7314,
    "_video": 7315,
    "경제": 7316,
    "_village": 7317,
    "_그래": 7318,
    "ctions": 7319,
    "_제기": 7320,
    "사에": 7321,
    "_trial": 7322,
    "사회": 7323,
    "_현지": 7324,
    "_fair": 7325,
    "_시간이": 7326,
    "복지": 7327,
    "_appear": 7328,
    "_broadcast": 7329,
    "_political": 7330,
    "_뉴": 7331,
    "_등으로": 7332,
    "_started": 7333,
    "_계약": 7334,
    "_제작": 7335,
    "ball": 7336,
    "시가": 7337,
    "_bea": 7338,
    "_또한": 7339,
    "_damage": 7340,
    "_내년": 7341,
    "_negot": 7342,
    "_nat": 7343,
    "_stage": 7344,
    "_association": 7345,
    "_stop": 7346,
    "_teacher": 7347,
    "_light": 7348,
    "_super": 7349,
    "_leader": 7350,
    "_medium": 7351,
    "요일": 7352,
    ".8": 7353,
    "_이름": 7354,
    "_자신의": 7355,
    "_담당": 7356,
    "_smart": 7357,
    "_기관": 7358,
    "_character": 7359,
    "_fine": 7360,
    "-re": 7361,
    "었던": 7362,
    "iet": 7363,
    "로벌": 7364,
    "_터": 7365,
    "_known": 7366,
    "_먼저": 7367,
    "리아": 7368,
    "_현대": 7369,
    "_didn't": 7370,
    "_deb": 7371,
    "선을": 7372,
    "_크게": 7373,
    "_employees": 7374,
    "비를": 7375,
    "_housing": 7376,
    "_contrib": 7377,
    "_고용": 7378,
    ".7": 7379,
    "_clear": 7380,
    "_bor": 7381,
    "만원": 7382,
    "_70": 7383,
    "wh": 7384,
    "_침": 7385,
    "_planning": 7386,
    "_given": 7387,
    "_의원": 7388,
    "_household": 7389,
    "_중소": 7390,
    "_quality": 7391,
    "_서울특별시": 7392,
    "진다.": 7393,
    "ross": 7394,
    "_chairperson": 7395,
    "_클": 7396,
    "_수출": 7397,
    "_move": 7398,
    "_사무": 7399,
    "_pict": 7400,
    "라인": 7401,
    "_los": 7402,
    "_expenses": 7403,
    "_his/her": 7404,
    "_connect": 7405,
    "전에": 7406,
    "전을": 7407,
    "_resol": 7408,
    "cing": 7409,
    "_apartment": 7410,
    "_풀": 7411,
    "_논란": 7412,
    "혁신": 7413,
    "ove": 7414,
    "_decision": 7415,
    "_appe": 7416,
    "_watch": 7417,
    "_저희": 7418,
    "_키": 7419,
    "_전시": 7420,
    "_defense": 7421,
    "_san": 7422,
    "ones": 7423,
    "_둘": 7424,
    "_징": 7425,
    "_kind": 7426,
    "iday": 7427,
    "yeon": 7428,
    "_혐의": 7429,
    "idence": 7430,
    "_몸": 7431,
    "되면": 7432,
    "cell": 7433,
    "ability": 7434,
    "imum": 7435,
    "_controvers": 7436,
    "_block": 7437,
    "_처리": 7438,
    "_캐": 7439,
    "_일이": 7440,
    "_having": 7441,
    "pl": 7442,
    "ways": 7443,
    "-up": 7444,
    "정책": 7445,
    "_opening": 7446,
    "\"라": 7447,
    "_began": 7448,
    "_regarding": 7449,
    "eric": 7450,
    "_regul": 7451,
    "_son": 7452,
    "_탄": 7453,
    "_mount": 7454,
    "_jeju": 7455,
    "_body": 7456,
    "_bene": 7457,
    "감을": 7458,
    "_&": 7459,
    "ogn": 7460,
    "_caused": 7461,
    "_persons": 7462,
    "소를": 7463,
    "_황": 7464,
    "ges": 7465,
    "sel": 7466,
    "_restaur": 7467,
    "_overseas": 7468,
    "_spread": 7469,
    "르는": 7470,
    "_promote": 7471,
    "_infr": 7472,
    "_peace": 7473,
    "_거래": 7474,
    "했다는": 7475,
    "_innov": 7476,
    "_우선": 7477,
    "_sang": 7478,
    "_division": 7479,
    "ined": 7480,
    "_교수": 7481,
    "지로": 7482,
    "_보호": 7483,
    "_natural": 7484,
    "_strateg": 7485,
    "_suff": 7486,
    "verage": 7487,
    "관은": 7488,
    "_sector": 7489,
    "_선택": 7490,
    "ains": 7491,
    "_saying,": 7492,
    "_사항을": 7493,
    "_strengthe": 7494,
    "_model": 7495,
    "_pred": 7496,
    "_혼": 7497,
    "_음악": 7498,
    "-se": 7499,
    "_부족": 7500,
    "_가능한": 7501,
    "_장애": 7502,
    "cher": 7503,
    "_opportun": 7504,
    "하다는": 7505,
    "_pet": 7506,
    "_responsib": 7507,
    "_far": 7508,
    "_individ": 7509,
    "시키": 7510,
    "'가": 7511,
    "_높아": 7512,
    "계를": 7513,
    "_조금": 7514,
    "_transf": 7515,
    "_benef": 7516,
    "_illeg": 7517,
    "_recogn": 7518,
    "_litt": 7519,
    "_mom": 7520,
    "_러": 7521,
    "_youth": 7522,
    "_있나요?": 7523,
    "_later": 7524,
    "_bill": 7525,
    "했어요.": 7526,
    "val": 7527,
    "_miss": 7528,
    "ically": 7529,
    "_ach": 7530,
    "_cle": 7531,
    "_관심이": 7532,
    "ash": 7533,
    "_전했다.": 7534,
    "재인": 7535,
    "세를": 7536,
    ".9": 7537,
    "mak": 7538,
    "_품": 7539,
    "업체": 7540,
    "_업체": 7541,
    "_treatment": 7542,
    "_thought": 7543,
    "_movie": 7544,
    "_traditional": 7545,
    "_여기": 7546,
    "_않을": 7547,
    "_ship": 7548,
    "hern": 7549,
    "epend": 7550,
    "sang": 7551,
    "_와": 7552,
    "_그의": 7553,
    "buk": 7554,
    "_혹": 7555,
    "_rather": 7556,
    "_close": 7557,
    "_압": 7558,
    "_plac": 7559,
    "_글로벌": 7560,
    "_도입": 7561,
    "_영어": 7562,
    "_focus": 7563,
    "_음식": 7564,
    "_윤": 7565,
    "함을": 7566,
    "'에": 7567,
    "_스마트": 7568,
    "_중인": 7569,
    "_victim": 7570,
    "_재판": 7571,
    "_little": 7572,
    "_showed": 7573,
    "_발견": 7574,
    "_활성": 7575,
    "ons": 7576,
    "_자리": 7577,
    "_achie": 7578,
    "라마": 7579,
    "_이루": 7580,
    "_movement": 7581,
    "치가": 7582,
    "_tre": 7583,
    "_보면": 7584,
    "_participated": 7585,
    "_seo": 7586,
    "_facility": 7587,
    "edi": 7588,
    "_additional": 7589,
    "_상승": 7590,
    "_opposition": 7591,
    "_이제": 7592,
    "_밀": 7593,
    "음을": 7594,
    "_age": 7595,
    "_물론": 7596,
    "_coll": 7597,
    "-year": 7598,
    "정부": 7599,
    "_individual": 7600,
    "_sat": 7601,
    "_놀": 7602,
    "드는": 7603,
    "트를": 7604,
    "_value": 7605,
    "_mult": 7606,
    "_inspection": 7607,
    "ia,": 7608,
    "ban": 7609,
    "_우수": 7610,
    "_공간": 7611,
    "_hours": 7612,
    "_ren": 7613,
    "시장": 7614,
    "side": 7615,
    "_대비": 7616,
    "_volun": 7617,
    "_attended": 7618,
    "_검토": 7619,
    "_prosecut": 7620,
    "_ant": 7621,
    "_independ": 7622,
    "of": 7623,
    "_탈": 7624,
    "ves": 7625,
    "_민간": 7626,
    "_party,": 7627,
    "_pointed": 7628,
    "_소개": 7629,
    "_과거": 7630,
    "_숨": 7631,
    "_justice": 7632,
    "_provided": 7633,
    "움이": 7634,
    "_church": 7635,
    "_apr": 7636,
    "(1": 7637,
    "_science": 7638,
    "_dev": 7639,
    "orean": 7640,
    "_단체": 7641,
    "aff": 7642,
    "_그동안": 7643,
    "_regular": 7644,
    "_recently": 7645,
    "_asian": 7646,
    "_sor": 7647,
    "_colle": 7648,
    "_flow": 7649,
    "aged": 7650,
    "_basic": 7651,
    "_seoul,": 7652,
    "_looking": 7653,
    "_cause": 7654,
    "_compared": 7655,
    "한다는": 7656,
    "_existing": 7657,
    "itted": 7658,
    "_hotel": 7659,
    "네요.": 7660,
    "_청와대": 7661,
    "_\"m": 7662,
    "_삶": 7663,
    "회는": 7664,
    "_reflect": 7665,
    "하였": 7666,
    "_arrest": 7667,
    "자에게": 7668,
    "_미래": 7669,
    "%,": 7670,
    "_island": 7671,
    "_교통": 7672,
    "erate": 7673,
    "_tw": 7674,
    "_april": 7675,
    "_ceremony": 7676,
    "_actively": 7677,
    "ond": 7678,
    "_union": 7679,
    "atory": 7680,
    "_납": 7681,
    "구가": 7682,
    "_conven": 7683,
    "_공급": 7684,
    "_really": 7685,
    "_역시": 7686,
    "_match": 7687,
    "_2019": 7688,
    "_role": 7689,
    "ertain": 7690,
    "단이": 7691,
    "_entrust": 7692,
    "과의": 7693,
    "_뜻": 7694,
    "_하루": 7695,
    "하기로": 7696,
    "인지": 7697,
    "_작성": 7698,
    "_da": 7699,
    "_things": 7700,
    "_jang": 7701,
    "_(1)": 7702,
    "_emergency": 7703,
    "_works": 7704,
    "일(": 7705,
    "_주변": 7706,
    "_day.": 7707,
    "_content": 7708,
    "_commer": 7709,
    "_experts": 7710,
    "ance,": 7711,
    "가가": 7712,
    "_supreme": 7713,
    "가를": 7714,
    "점이": 7715,
    "jin": 7716,
    "_prepare": 7717,
    "_사람들이": 7718,
    "_pus": 7719,
    "_범위": 7720,
    "_경기도가": 7721,
    "angu": 7722,
    "_직원": 7723,
    "_key": 7724,
    "_각종": 7725,
    "_레": 7726,
    "_대하여": 7727,
    "_invol": 7728,
    "_구조": 7729,
    "_vot": 7730,
    "_ceo": 7731,
    "_trip": 7732,
    "_2014": 7733,
    "_conference": 7734,
    "_bar": 7735,
    "주택": 7736,
    "_enterpr": 7737,
    "_제주": 7738,
    "_americ": 7739,
    "자와": 7740,
    "_cred": 7741,
    "_train": 7742,
    "_prepar": 7743,
    "_인사": 7744,
    "_internet": 7745,
    "_starting": 7746,
    "_begin": 7747,
    "스로": 7748,
    "cer": 7749,
    "_ruling": 7750,
    "_russ": 7751,
    "_주목": 7752,
    "wa": 7753,
    "한다고": 7754,
    "_아파": 7755,
    "_infl": 7756,
    "_그가": 7757,
    "_논의": 7758,
    "_bat": 7759,
    "원에서": 7760,
    "_host": 7761,
    "_prices": 7762,
    "_1st": 7763,
    "_energy": 7764,
    "_screen": 7765,
    "_always": 7766,
    "_prime": 7767,
    "_해야": 7768,
    "_lawmak": 7769,
    "_청년": 7770,
    "_sug": 7771,
    "_response": 7772,
    "는지": 7773,
    "_death": 7774,
    "_interv": 7775,
    "_합의": 7776,
    "_corporation": 7777,
    "_앞서": 7778,
    "_한다는": 7779,
    "_liberty": 7780,
    "_수행": 7781,
    "_반영": 7782,
    "_experi": 7783,
    "icles": 7784,
    "_cal": 7785,
    "조사": 7786,
    "_trillion": 7787,
    "_infrast": 7788,
    "_어렵": 7789,
    "_confirmed": 7790,
    "_ground": 7791,
    "_supply": 7792,
    "되면서": 7793,
    "_mess": 7794,
    "anch": 7795,
    "ke": 7796,
    "_agricultural": 7797,
    "_기본": 7798,
    "_headqu": 7799,
    "로부터": 7800,
    "_gir": 7801,
    "_often": 7802,
    "_됐다.": 7803,
    "_어린이": 7804,
    "보고": 7805,
    "o.": 7806,
    "_전통": 7807,
    "_가지": 7808,
    "_제3": 7809,
    "_nation": 7810,
    "_airport": 7811,
    "_번째": 7812,
    "come": 7813,
    "_해요.": 7814,
    "정은": 7815,
    "전히": 7816,
    "_제외": 7817,
    "_higher": 7818,
    "_나라": 7819,
    "adem": 7820,
    "_언제": 7821,
    "하였다.": 7822,
    "by": 7823,
    "'의": 7824,
    "_oct": 7825,
    "ured": 7826,
    "_predict": 7827,
    "_jae-in": 7828,
    "_tae": 7829,
    "_study": 7830,
    "권을": 7831,
    "_\"p": 7832,
    "_measure": 7833,
    "_wage": 7834,
    "_각각": 7835,
    "_인도": 7836,
    "ufact": 7837,
    "_문재인": 7838,
    "_parents": 7839,
    "_dece": 7840,
    "_me.": 7841,
    "그룹": 7842,
    "_받는": 7843,
    "_ir": 7844,
    "_you'": 7845,
    "_국무": 7846,
    "_tourism": 7847,
    "_eat": 7848,
    "인은": 7849,
    "_전에": 7850,
    "_기능": 7851,
    "_infrastructure": 7852,
    "-young": 7853,
    "_sem": 7854,
    "_taken": 7855,
    "_것도": 7856,
    "_가지고": 7857,
    "_respect": 7858,
    "_never": 7859,
    "대에": 7860,
    "_reform": 7861,
    "_fur": 7862,
    "_자연": 7863,
    "_알고": 7864,
    "_walk": 7865,
    "_langu": 7866,
    "_months": 7867,
    "ines": 7868,
    "_실제": 7869,
    "_fre": 7870,
    "_seen": 7871,
    "_300": 7872,
    "_끌": 7873,
    "_한국의": 7874,
    "_과정에서": 7875,
    "_regional": 7876,
    "erly": 7877,
    "_least": 7878,
    "_회사": 7879,
    "_manufact": 7880,
    "illed": 7881,
    "_보이": 7882,
    "년간": 7883,
    "_green": 7884,
    "_establishment": 7885,
    "_considering": 7886,
    "계가": 7887,
    "_lack": 7888,
    "_resour": 7889,
    "_지난달": 7890,
    "_leaders": 7891,
    "_club": 7892,
    "_ji": 7893,
    "_board": 7894,
    "_hit": 7895,
    "ault": 7896,
    "_빨": 7897,
    "_하지": 7898,
    "_경찰은": 7899,
    "_500": 7900,
    "_year's": 7901,
    "ends": 7902,
    "-1": 7903,
    "_becom": 7904,
    "_경영": 7905,
    "되었": 7906,
    "_mother": 7907,
    "_operating": 7908,
    "되었다.": 7909,
    "_directly": 7910,
    "_착": 7911,
    "mpt": 7912,
    "_연락": 7913,
    "_건설": 7914,
    "_accept": 7915,
    "_변경": 7916,
    "_어디": 7917,
    "_\"c": 7918,
    "_deal": 7919,
    "_협력": 7920,
    "학생": 7921,
    "_울": 7922,
    "다며": 7923,
    "_ger": 7924,
    "_tren": 7925,
    "_위치": 7926,
    "_survey": 7927,
    "%)": 7928,
    "_차지": 7929,
    "-dong,": 7930,
    "_signific": 7931,
    "_history": 7932,
    "_stay": 7933,
    "_rain": 7934,
    "물이": 7935,
    "_fem": 7936,
    "_goal": 7937,
    "_city,": 7938,
    "_red": 7939,
    "나라": 7940,
    "_선거": 7941,
    "_암": 7942,
    "_largest": 7943,
    "_만에": 7944,
    "_촉": 7945,
    "_이는": 7946,
    "-l": 7947,
    "_hu": 7948,
    "br": 7949,
    "_yoon": 7950,
    "_di": 7951,
    "안전": 7952,
    "_나온다.": 7953,
    "ients": 7954,
    "_받을": 7955,
    "\".": 7956,
    "_jong-": 7957,
    "_wind": 7958,
    "_자동차": 7959,
    "',": 7960,
    "_explained": 7961,
    "자들의": 7962,
    "_인터넷": 7963,
    "_brand": 7964,
    "_방식": 7965,
    "_deputy": 7966,
    "_전달": 7967,
    "_sep": 7968,
    "_ans": 7969,
    "_의료": 7970,
    "_홈": 7971,
    "_겪": 7972,
    "_possibility": 7973,
    "_determin": 7974,
    "스타": 7975,
    "_언론": 7976,
    "_professional": 7977,
    "_capital": 7978,
    "_뛰": 7979,
    "_vac": 7980,
    "_도지사는": 7981,
    "일을": 7982,
    "_올라": 7983,
    "yc": 7984,
    "ok,": 7985,
    "_effic": 7986,
    "_기획": 7987,
    "대상": 7988,
    "_러시아": 7989,
    "_people,": 7990,
    "_80": 7991,
    "_urban": 7992,
    "_드라마": 7993,
    "_이러": 7994,
    "이었다.": 7995,
    "_이동": 7996,
    "_영향을": 7997,
    "_비판": 7998,
    "_complete": 7999,
    "_위험": 8000,
    "운영": 8001,
    "_heav": 8002,
    "_stor": 8003,
    "ment.": 8004,
    "_headquart": 8005,
    "_contact": 8006,
    "_street": 8007,
    "_expl": 8008,
    "_heart": 8009,
    "_목표": 8010,
    "_3월": 8011,
    "_yong": 8012,
    "itten": 8013,
    "원으로": 8014,
    "emed": 8015,
    "_jeon": 8016,
    "도시": 8017,
    "po": 8018,
    "_있게": 8019,
    "_dail": 8020,
    "_academ": 8021,
    "_p.m.": 8022,
    "_jan": 8023,
    "_나타났다.": 8024,
    "istic": 8025,
    "_element": 8026,
    "서의": 8027,
    "_europ": 8028,
    "장으로": 8029,
    "_무역": 8030,
    "_plant": 8031,
    "문을": 8032,
    "_arm": 8033,
    "_아무": 8034,
    "_network": 8035,
    "_sorry": 8036,
    "_cut": 8037,
    "_상당": 8038,
    "_게임": 8039,
    "_구축": 8040,
    "_comb": 8041,
    "_dust": 8042,
    "_course": 8043,
    "_있으며,": 8044,
    "_applied": 8045,
    "시면": 8046,
    "_행복": 8047,
    "_phone": 8048,
    "_홍보": 8049,
    "_average": 8050,
    "_crim": 8051,
    "_사례": 8052,
    "_decl": 8053,
    "_few": 8054,
    "_시스템": 8055,
    "_forest": 8056,
    "_근로": 8057,
    "undai": 8058,
    "_decre": 8059,
    "_대법": 8060,
    "_nuclear": 8061,
    "_superv": 8062,
    "_석": 8063,
    "_최종": 8064,
    "_clean": 8065,
    "들도": 8066,
    "_감소": 8067,
    "_septe": 8068,
    "_sever": 8069,
    "_limit": 8070,
    "_ident": 8071,
    "_raised": 8072,
    "성과": 8073,
    "vert": 8074,
    "_players": 8075,
    "_서로": 8076,
    "_trust": 8077,
    "_유명": 8078,
    "_이내": 8079,
    "_받았": 8080,
    "_청소년": 8081,
    "_인해": 8082,
    "_college": 8083,
    "_fans": 8084,
    "_사회적": 8085,
    "_팔": 8086,
    "_됐": 8087,
    "_tomor": 8088,
    "_tomorrow": 8089,
    "2년": 8090,
    "안이": 8091,
    "_체험": 8092,
    "_지나": 8093,
    "_목적으로": 8094,
    "_중심으로": 8095,
    "_question": 8096,
    "_break": 8097,
    "_illegal": 8098,
    "_years,": 8099,
    "립니다.": 8100,
    "_정확": 8101,
    "_grand": 8102,
    "_immedi": 8103,
    "ity.": 8104,
    "_cities": 8105,
    "_심의": 8106,
    "_기다": 8107,
    "있는": 8108,
    "_staff": 8109,
    "_suspect": 8110,
    "_중앙": 8111,
    "_concert": 8112,
    "_주택": 8113,
    ")의": 8114,
    "도의": 8115,
    "_further": 8116,
    "le.": 8117,
    "_fed": 8118,
    "_택": 8119,
    "_enfor": 8120,
    "디어": 8121,
    "_계획이다.": 8122,
    "_\"b": 8123,
    "_leave": 8124,
    "_electric": 8125,
    "_hyundai": 8126,
    "_하지만": 8127,
    "_성과": 8128,
    "_evaluation": 8129,
    "_provided,": 8130,
    "_personnel": 8131,
    "_deliberation": 8132,
    "_german": 8133,
    "_5월": 8134,
    "thing": 8135,
    "너지": 8136,
    "_lower": 8137,
    "ises": 8138,
    "km": 8139,
    "_disaster": 8140,
    "_outside": 8141,
    "_위촉": 8142,
    "_improvement": 8143,
    "_enough": 8144,
    "_불가": 8145,
    "renc": 8146,
    "_불법": 8147,
    "_이렇게": 8148,
    "_blo": 8149,
    "_\"d": 8150,
    "_밤": 8151,
    "_정상회담": 8152,
    "_gyeongsang": 8153,
    ".0": 8154,
    "_quick": 8155,
    "_star": 8156,
    "_해당하는": 8157,
    "_created": 8158,
    "텐츠": 8159,
    "_aug": 8160,
    "_story": 8161,
    "ilar": 8162,
    "erature": 8163,
    "_있지만": 8164,
    "_2nd": 8165,
    "_공유": 8166,
    "생활": 8167,
    "_problems": 8168,
    "_makes": 8169,
    "_online": 8170,
    "_왔": 8171,
    "_accord": 8172,
    "_changed": 8173,
    "_complain": 8174,
    "_2013": 8175,
    "_organizations": 8176,
    "ift": 8177,
    "_도로": 8178,
    "_숙": 8179,
    "_cup": 8180,
    "법>": 8181,
    "mission": 8182,
    "촬영": 8183,
    "_봉": 8184,
    "_나서": 8185,
    "r.": 8186,
    "_credit": 8187,
    "gress": 8188,
    "_status": 8189,
    "지방": 8190,
    "_significant": 8191,
    "_delay": 8192,
    "_9월": 8193,
    "ester": 8194,
    "_round": 8195,
    "_heat": 8196,
    "_personal": 8197,
    "예요.": 8198,
    "량이": 8199,
    "istics": 8200,
    "_대응": 8201,
    "지도": 8202,
    "_document": 8203,
    "irth": 8204,
    "ity,": 8205,
    "_hyun": 8206,
    "게요.": 8207,
    "_society": 8208,
    "_되어": 8209,
    "_이러한": 8210,
    "_wave": 8211,
    "_강조했다.": 8212,
    "_하여": 8213,
    "_center,": 8214,
    "건을": 8215,
    "ague": 8216,
    "_근무": 8217,
    "_위탁": 8218,
    "ruit": 8219,
    "_advance": 8220,
    "_try": 8221,
    "_뿐": 8222,
    "_yet": 8223,
    "하던": 8224,
    "_equip": 8225,
    "ping": 8226,
    "just": 8227,
    "imin": 8228,
    "_vehicle": 8229,
    "별로": 8230,
    "_gangwon": 8231,
    "_시험": 8232,
    "_붙": 8233,
    "_speak": 8234,
    "_현장": 8235,
    "_drink": 8236,
    "_traffic": 8237,
    "go": 8238,
    "_enc": 8239,
    "10": 8240,
    "ober": 8241,
    "_blue": 8242,
    "지막": 8243,
    "_공정": 8244,
    "_daily": 8245,
    "_interview": 8246,
    "위가": 8247,
    "pecial": 8248,
    "_prepared": 8249,
    "_color": 8250,
    "_다만,": 8251,
    "_government's": 8252,
    "_accordance": 8253,
    "르게": 8254,
    "_word": 8255,
    "_table": 8256,
    "_them.": 8257,
    "_퇴": 8258,
    "uary": 8259,
    "_leading": 8260,
    "_꾸": 8261,
    "_10월": 8262,
    "_easy": 8263,
    "업이": 8264,
    "어난": 8265,
    "_유럽": 8266,
    "_size": 8267,
    "_rank": 8268,
    "_industries": 8269,
    "_month.": 8270,
    "_restaurant": 8271,
    "_기념": 8272,
    "_상대": 8273,
    "_전해": 8274,
    "_마을": 8275,
    "_인상": 8276,
    "_중소기업": 8277,
    "_language": 8278,
    "_increasing": 8279,
    "_foot": 8280,
    "_stress": 8281,
    "_desp": 8282,
    "_효율": 8283,
    "_수요": 8284,
    "_mountain": 8285,
    "_month,": 8286,
    "_중요한": 8287,
    "스는": 8288,
    "_자료": 8289,
    "_소방": 8290,
    "noon": 8291,
    "금이": 8292,
    "_도내": 8293,
    "_histor": 8294,
    "_강원": 8295,
    "_도착": 8296,
    "_vo": 8297,
    "_분위": 8298,
    "냈다.": 8299,
    "_afternoon": 8300,
    "_eld": 8301,
    "_역할을": 8302,
    "_부모": 8303,
    "_것이라는": 8304,
    "_addition,": 8305,
    "_두고": 8306,
    "_excell": 8307,
    "_customers": 8308,
    "_4월": 8309,
    "인들이": 8310,
    "규모": 8311,
    "ung,": 8312,
    "_target": 8313,
    "_ut": 8314,
    "_candidate": 8315,
    "머니": 8316,
    "_7월": 8317,
    "_꿈": 8318,
    "_deg": 8319,
    "_similar": 8320,
    "_있기": 8321,
    "_최초": 8322,
    "_이곳": 8323,
    "소가": 8324,
    "훈련": 8325,
    "mal": 8326,
    "_foundation": 8327,
    "_mer": 8328,
    "_women's": 8329,
    "_unf": 8330,
    "_currently": 8331,
    "_operate": 8332,
    "_제시": 8333,
    "국의": 8334,
    "_많아": 8335,
    "_minimum": 8336,
    "_본격": 8337,
    "ets": 8338,
    "구를": 8339,
    "yu": 8340,
    "_analyz": 8341,
    "_alleg": 8342,
    "회에": 8343,
    "_action": 8344,
    "_일자리": 8345,
    "_repl": 8346,
    "ring": 8347,
    "_hon": 8348,
    "_수립": 8349,
    "_meaning": 8350,
    "_opinion": 8351,
    "통신": 8352,
    "fort": 8353,
    "_estate": 8354,
    "_컨": 8355,
    "_마지막": 8356,
    "_suggest": 8357,
    "_legal": 8358,
    "_lect": 8359,
    "_october": 8360,
    "_견": 8361,
    "_mobile": 8362,
    "_dut": 8363,
    "_찍": 8364,
    "_거쳐": 8365,
    "_광주": 8366,
    "_cris": 8367,
    "약을": 8368,
    "_아파트": 8369,
    "이었": 8370,
    "_관심을": 8371,
    "_그룹": 8372,
    "_step": 8373,
    "ison": 8374,
    "ration": 8375,
    "-wo": 8376,
    "부에": 8377,
    "_현실": 8378,
    "_anim": 8379,
    "_policies": 8380,
    "_gl": 8381,
    "불어": 8382,
    "_except": 8383,
    "_겨": 8384,
    "_getting": 8385,
    "_holiday": 8386,
    "_female": 8387,
    "_ahead": 8388,
    "_있고": 8389,
    "_사업을": 8390,
    "_photo": 8391,
    "_officer": 8392,
    "_조선": 8393,
    "트남": 8394,
    "_conflic": 8395,
    "arant": 8396,
    "_rise": 8397,
    "_198": 8398,
    "_presidential": 8399,
    "교통": 8400,
    "_king": 8401,
    "_fish": 8402,
    "_책임": 8403,
    "_능": 8404,
    "_bad": 8405,
    "_핵심": 8406,
    "_sexual": 8407,
    "_friends": 8408,
    "_har": 8409,
    "_설립": 8410,
    "_개정": 8411,
    "_lg": 8412,
    "_알려졌다.": 8413,
    "동산": 8414,
    "_export": 8415,
    "_region": 8416,
    "aper": 8417,
    "지면서": 8418,
    "_oil": 8419,
    "_earli": 8420,
    "_revealed": 8421,
    "_sea": 8422,
    "_등록": 8423,
    "_추천": 8424,
    "_예술": 8425,
    "_브랜드": 8426,
    "_호텔": 8427,
    "_\"이": 8428,
    "_cong": 8429,
    "_expressed": 8430,
    "road": 8431,
    "_가까": 8432,
    "_written": 8433,
    "당이": 8434,
    "hen": 8435,
    "_memor": 8436,
    "_죽": 8437,
    "_something": 8438,
    "_sess": 8439,
    "_viet": 8440,
    "ening": 8441,
    "_그렇": 8442,
    "_넘어": 8443,
    "_relationship": 8444,
    "_several": 8445,
    "_최저": 8446,
    "습니까?": 8447,
    "_funds": 8448,
    "_깊": 8449,
    "_6월": 8450,
    "_designated": 8451,
    "_nort": 8452,
    "등학교": 8453,
    "구청장": 8454,
    "_혁신": 8455,
    "_내려": 8456,
    "_수입": 8457,
    "_vietnam": 8458,
    "무를": 8459,
    "_kin": 8460,
    "rist": 8461,
    "-dong": 8462,
    "_acqu": 8463,
    "리스": 8464,
    "서비스": 8465,
    "_dream": 8466,
    "_녹": 8467,
    "_운동": 8468,
    "감이": 8469,
    "_it,": 8470,
    "-korean": 8471,
    "idered": 8472,
    "ground": 8473,
    "incip": 8474,
    "_2,": 8475,
    "이어": 8476,
    "_얘": 8477,
    "_있어서": 8478,
    "_sett": 8479,
    "ological": 8480,
    "_별지": 8481,
    "_격": 8482,
    "_authorities": 8483,
    "_어려운": 8484,
    "osal": 8485,
    "했지만": 8486,
    "_조직": 8487,
    "_years.": 8488,
    "_girl": 8489,
    "드를": 8490,
    "거래": 8491,
    "_seong": 8492,
    "_점을": 8493,
    "-sized": 8494,
    "_매년": 8495,
    "하며,": 8496,
    "_emb": 8497,
    "_rap": 8498,
    "_연결": 8499,
    "uted": 8500,
    "_schools": 8501,
    "_purchase": 8502,
    "_respond": 8503,
    "_gangnam": 8504,
    "자치": 8505,
    "_갑": 8506,
    "_제대로": 8507,
    "_denuclear": 8508,
    "_지도": 8509,
    "_seven": 8510,
    "_1년": 8511,
    "_inside": 8512,
    "rupt": 8513,
    "_introduced": 8514,
    "_actual": 8515,
    "_모습을": 8516,
    "_독일": 8517,
    "_늦": 8518,
    "_ho": 8519,
    "_한류": 8520,
    "_picture": 8521,
    "자,": 8522,
    "_sche": 8523,
    "_보유": 8524,
    "없이": 8525,
    "_선보": 8526,
    "_202": 8527,
    "_싶은": 8528,
    "_네가": 8529,
    "_rat": 8530,
    "_june": 8531,
    "_강남": 8532,
    "_제한": 8533,
    "_ver": 8534,
    "_lost": 8535,
    "_rice": 8536,
    "려고": 8537,
    "_fis": 8538,
    "_considered": 8539,
    "_색": 8540,
    "ili": 8541,
    "_submit": 8542,
    "_워": 8543,
    "yo": 8544,
    "_controversy": 8545,
    "조의": 8546,
    "_crisis": 8547,
    "율이": 8548,
    "_관련해": 8549,
    "_commercial": 8550,
    "_now.": 8551,
    "ides": 8552,
    "_god": 8553,
    "enced": 8554,
    "_첨": 8555,
    "이를": 8556,
    "_august": 8557,
    "_developed": 8558,
    "부의": 8559,
    "(2": 8560,
    "cel": 8561,
    "_pref": 8562,
    "_influ": 8563,
    "_told": 8564,
    "_궁": 8565,
    "국이": 8566,
    "_일을": 8567,
    "_seat": 8568,
    "ery": 8569,
    "_노래": 8570,
    "증을": 8571,
    "_profit": 8572,
    "_더불어": 8573,
    "bor": 8574,
    "_인근": 8575,
    "_single": 8576,
    "ury": 8577,
    "_negoti": 8578,
    "_daegu": 8579,
    "관을": 8580,
    "_transportation": 8581,
    "_happy": 8582,
    "_princip": 8583,
    "lus": 8584,
    "anced": 8585,
    "_unl": 8586,
    "_fact,": 8587,
    "_비핵": 8588,
    "했고,": 8589,
    "bc": 8590,
    "_나왔다.": 8591,
    "_gave": 8592,
    "_만든": 8593,
    "_제안": 8594,
    "ened": 8595,
    "_manager": 8596,
    "lated": 8597,
    "erc": 8598,
    "_believe": 8599,
    "_정도로": 8600,
    "_진출": 8601,
    "_베트남": 8602,
    "_아래": 8603,
    "_lit": 8604,
    "_reduce": 8605,
    "_alone": 8606,
    "_january": 8607,
    "_affect": 8608,
    "_12월": 8609,
    "_대형": 8610,
    "_종합": 8611,
    "arter": 8612,
    "활동": 8613,
    "_thank": 8614,
    "ught": 8615,
    "_states": 8616,
    "_built": 8617,
    "_1월": 8618,
    "ess.": 8619,
    "두고": 8620,
    "_yes,": 8621,
    "_평균": 8622,
    "_대신": 8623,
    "ald": 8624,
    "지지": 8625,
    "섰다.": 8626,
    "itor": 8627,
    "_fell": 8628,
    "_july": 8629,
    "행을": 8630,
    "_내일": 8631,
    "ential": 8632,
    "_autom": 8633,
    "_hwang": 8634,
    "_learning": 8635,
    "new": 8636,
    ")에": 8637,
    "_부탁": 8638,
    "_recommend": 8639,
    "_doll": 8640,
    "_holding": 8641,
    "_integr": 8642,
    "_beaut": 8643,
    "_inter-korean": 8644,
    "세먼": 8645,
    "_growing": 8646,
    "분이": 8647,
    "_prior": 8648,
    "_engine": 8649,
    "_기반": 8650,
    "ah": 8651,
    "0년": 8652,
    "_말씀": 8653,
    "_enforcement": 8654,
    "품을": 8655,
    "atives": 8656,
    "_heard": 8657,
    "위에": 8658,
    "_둔": 8659,
    "_매출": 8660,
    "'은": 8661,
    "_믿": 8662,
    "_committee,": 8663,
    "_efforts": 8664,
    "수의": 8665,
    "_ok": 8666,
    "_minutes": 8667,
    "식에": 8668,
    "_drug": 8669,
    "_모델": 8670,
    "_얼마나": 8671,
    "_let's": 8672,
    "운동": 8673,
    "회에서": 8674,
    "_businesses": 8675,
    "_즉": 8676,
    "_shows": 8677,
    "랍니다.": 8678,
    "_slow": 8679,
    "_건물": 8680,
    "_deep": 8681,
    "_favor": 8682,
    "인데": 8683,
    "_institutions": 8684,
    "_parking": 8685,
    "lay": 8686,
    "_위반": 8687,
    "_needs": 8688,
    "_안정": 8689,
    "_은": 8690,
    "hest": 8691,
    "_자체": 8692,
    "urs": 8693,
    "_없어": 8694,
    "_scene": 8695,
    "_11월": 8696,
    "_white": 8697,
    "ead": 8698,
    "ained": 8699,
    "_은행": 8700,
    "이란": 8701,
    "_표현": 8702,
    "_well.": 8703,
    "_i've": 8704,
    "_왕": 8705,
    "_됩니다.": 8706,
    "_가는": 8707,
    "_네,": 8708,
    "_compens": 8709,
    "_text": 8710,
    "_moment": 8711,
    "사로": 8712,
    "_burden": 8713,
    "has": 8714,
    "-le": 8715,
    "_father": 8716,
    "_dist": 8717,
    "_그럼": 8718,
    "_christ": 8719,
    "화에": 8720,
    "_cold": 8721,
    "_쪽": 8722,
    "-st": 8723,
    "_carry": 8724,
    "_넣": 8725,
    "_8월": 8726,
    "대의": 8727,
    "차를": 8728,
    "ocal": 8729,
    "_original": 8730,
    "ues": 8731,
    "_thing": 8732,
    "ysis": 8733,
    "_trend": 8734,
    "_associ": 8735,
    "_수가": 8736,
    "agn": 8737,
    "_communication": 8738,
    "_today.": 8739,
    "장에게": 8740,
    "_maintain": 8741,
    "_사망": 8742,
    "_schedu": 8743,
    "세가": 8744,
    "_loan": 8745,
    "는다.": 8746,
    "ively": 8747,
    "_poor": 8748,
    "enue": 8749,
    "_보험": 8750,
    "_하락": 8751,
    "_않았다.": 8752,
    "_yeong": 8753,
    ")는": 8754,
    "_x": 8755,
    "in,": 8756,
    "_jobs": 8757,
    "_아시아": 8758,
    "_목소": 8759,
    "_소득": 8760,
    "시간)": 8761,
    "_events": 8762,
    "_달리": 8763,
    "_누구": 8764,
    "_외국인": 8765,
    "_entertain": 8766,
    "_opened": 8767,
    "_온라인": 8768,
    "_jeong": 8769,
    "_executive": 8770,
    "_property": 8771,
    "_opinions": 8772,
    "_문제를": 8773,
    "_certain": 8774,
    "_기자": 8775,
    "_대구": 8776,
    "_$": 8777,
    "_simp": 8778,
    "_incident": 8779,
    "_이전": 8780,
    "_갖고": 8781,
    "_공무원": 8782,
    "_feb": 8783,
    "_yoo": 8784,
    "_출신": 8785,
    "나는": 8786,
    "_risk": 8787,
    "_nove": 8788,
    "_바랍니다.": 8789,
    ")을": 8790,
    "rary": 8791,
    "ott": 8792,
    "uck": 8793,
    "bu": 8794,
    "_sure": 8795,
    "_exceed": 8796,
    "iful": 8797,
    "_prom": 8798,
    "_대책": 8799,
    "_자유한국": 8800,
    "_birth": 8801,
    "_2016년": 8802,
    "더라도": 8803,
    "_예방": 8804,
    "_있던": 8805,
    "_공식": 8806,
    "_corre": 8807,
    "_actor": 8808,
    "드리": 8809,
    "acy": 8810,
    "ators": 8811,
    "_상황에서": 8812,
    "onom": 8813,
    "광역": 8814,
    "_sound": 8815,
    "ughter": 8816,
    "_instead": 8817,
    "_충분": 8818,
    "ging": 8819,
    "_operated": 8820,
    "_것이라고": 8821,
    "-n": 8822,
    "_가진": 8823,
    "_시간을": 8824,
    "_ball": 8825,
    "_caus": 8826,
    "_대한민": 8827,
    "_tur": 8828,
    "-he": 8829,
    "임금": 8830,
    "개의": 8831,
    "gart": 8832,
    "_힘들": 8833,
    "_include": 8834,
    "하자": 8835,
    "_죄": 8836,
    "_못한": 8837,
    "_mr.": 8838,
    "_toward": 8839,
    "_규제": 8840,
    "항의": 8841,
    "book": 8842,
    "_liv": 8843,
    "_winter": 8844,
    "_쇼": 8845,
    "스터": 8846,
    "_듣": 8847,
    "_대통령은": 8848,
    "_전략": 8849,
    "_materials": 8850,
    "_tick": 8851,
    "_avail": 8852,
    "_출연": 8853,
    "하고자": 8854,
    "_점검": 8855,
    "_headquarters": 8856,
    "_대중": 8857,
    "_receiving": 8858,
    "emp": 8859,
    "_electronics": 8860,
    ")를": 8861,
    "_proced": 8862,
    "_dest": 8863,
    "_famous": 8864,
    "_유치": 8865,
    "_conditions": 8866,
    "_이상의": 8867,
    "_excellent": 8868,
    "lebr": 8869,
    "dergart": 8870,
    "hedul": 8871,
    "_schedul": 8872,
    "_elementary": 8873,
    "_비교": 8874,
    "_일정": 8875,
    "ease": 8876,
    "_black": 8877,
    "_tele": 8878,
    "_우리나라": 8879,
    "_aim": 8880,
    "스크": 8881,
    "-w": 8882,
    "_전화": 8883,
    "_혹시": 8884,
    "_interested": 8885,
    "_gas": 8886,
    "거리": 8887,
    "관계": 8888,
    "_emphas": 8889,
    "_waste": 8890,
    "_appointed": 8891,
    "롭게": 8892,
    "으로써": 8893,
    "loy": 8894,
    "_깨": 8895,
    "_mind": 8896,
    "_disease": 8897,
    "_games": 8898,
    "_자신이": 8899,
    "_takes": 8900,
    "_mut": 8901,
    "_영상": 8902,
    "받은": 8903,
    "에선": 8904,
    "_방향": 8905,
    "사고": 8906,
    "_answ": 8907,
    "abilities": 8908,
    "_celebr": 8909,
    "_completed": 8910,
    "소득": 8911,
    "_especial": 8912,
    "_2차": 8913,
    "_protection": 8914,
    "적을": 8915,
    "_carried": 8916,
    "_pun": 8917,
    "_협의": 8918,
    "_analysis": 8919,
    "_kindergart": 8920,
    "elt": 8921,
    "기의": 8922,
    "_autonom": 8923,
    "_작은": 8924,
    "_fees": 8925,
    "달러": 8926,
    "_케이": 8927,
    "_highest": 8928,
    "_비해": 8929,
    "_forward": 8930,
    "_ten": 8931,
    "_corporate": 8932,
    "_atm": 8933,
    "현지": 8934,
    "_취업": 8935,
    "_pot": 8936,
    "_bring": 8937,
    "_정신": 8938,
    "_skill": 8939,
    "ae,": 8940,
    "_continued": 8941,
    "_approval": 8942,
    "_구체": 8943,
    "_successful": 8944,
    "_evalu": 8945,
    "로,": 8946,
    "_건축": 8947,
    "_concerning": 8948,
    "_중구": 8949,
    "_crime": 8950,
    "_distribution": 8951,
    "하지만": 8952,
    "_3rd": 8953,
    "_가져": 8954,
    "_촬영": 8955,
    "_항공": 8956,
    "_lif": 8957,
    "_지하": 8958,
    "yong": 8959,
    "_passed": 8960,
    "사항": 8961,
    "_의견을": 8962,
    "_살아": 8963,
    "_we'": 8964,
    "_방침": 8965,
    "_치료": 8966,
    "_시청": 8967,
    "_구속": 8968,
    "경찰": 8969,
    "rew": 8970,
    "astic": 8971,
    "1년": 8972,
    "_부동산": 8973,
    "_branch": 8974,
    "_상담": 8975,
    "_function": 8976,
    "iction": 8977,
    "ern": 8978,
    "ique": 8979,
    "_available": 8980,
    "ervation": 8981,
    "_environmental": 8982,
    "_generation": 8983,
    "-ho": 8984,
    "_jong": 8985,
    "_파악": 8986,
    "ruary": 8987,
    "_취소": 8988,
    "_운전": 8989,
    "ences": 8990,
    "_퍼": 8991,
    "rehe": 8992,
    "_바람": 8993,
    "_people's": 8994,
    "_that's": 8995,
    "_ide": 8996,
    "공무": 8997,
    "_수익": 8998,
    "_흐": 8999,
    "_희망": 9000,
    "_impact": 9001,
    "_창업": 9002,
    "_정부의": 9003,
    "_contents": 9004,
    "_있는데": 9005,
    "_dou": 9006,
    "_pack": 9007,
    "_squ": 9008,
    "_played": 9009,
    "_있고,": 9010,
    "_progress": 9011,
    "_now,": 9012,
    "phone": 9013,
    "_done": 9014,
    "_suspic": 9015,
    "8년": 9016,
    "_ru": 9017,
    "_흔": 9018,
    "_coach": 9019,
    "_prescribed": 9020,
    "_families": 9021,
    "_수상": 9022,
    "라이": 9023,
    "_사실을": 9024,
    "량을": 9025,
    "_guarant": 9026,
    "_regulations": 9027,
    "_이야기": 9028,
    "여명이": 9029,
    "_europe": 9030,
    "수록": 9031,
    "_land,": 9032,
    "_safe": 9033,
    "지,": 9034,
    "_bal": 9035,
    "_unit": 9036,
    "_type": 9037,
    "_transfer": 9038,
    "이기": 9039,
    "_force": 9040,
    "_하면": 9041,
    "_씨": 9042,
    "_국토": 9043,
    "sc": 9044,
    "ipt": 9045,
    "_si": 9046,
    "ess,": 9047,
    "_필요가": 9048,
    "_제조": 9049,
    "_콘텐츠": 9050,
    "_trying": 9051,
    "_확정": 9052,
    "_sle": 9053,
    "_terms": 9054,
    "_concent": 9055,
    "_included": 9056,
    "rehens": 9057,
    "_\"in": 9058,
    "_페": 9059,
    "_티": 9060,
    "_prem": 9061,
    "_bit": 9062,
    "_clos": 9063,
    "_market,": 9064,
    "일에": 9065,
    "단을": 9066,
    "_되고": 9067,
    "_평화": 9068,
    "_내용을": 9069,
    "_penins": 9070,
    "_통신": 9071,
    "들에": 9072,
    "_싱": 9073,
    "_잔": 9074,
    "_빈": 9075,
    "_\"h": 9076,
    "_woman": 9077,
    "_공격": 9078,
    "_beautiful": 9079,
    "_불편": 9080,
    "_peninsul": 9081,
    "_이하": 9082,
    "_35": 9083,
    "_zone": 9084,
    "도는": 9085,
    "_반대": 9086,
    "_대해서는": 9087,
    "_gold": 9088,
    "_february": 9089,
    "_kt": 9090,
    "_na": 9091,
    "ance.": 9092,
    "_won,": 9093,
    "_situ": 9094,
    "_아름": 9095,
    "_common": 9096,
    "_system,": 9097,
    "지의": 9098,
    "_경기도는": 9099,
    "_phys": 9100,
    "_지원을": 9101,
    "_ey": 9102,
    "_젊": 9103,
    "_알아": 9104,
    "dong": 9105,
    "_examp": 9106,
    "_소송": 9107,
    "_coup": 9108,
    "_대해서": 9109,
    "_items": 9110,
    "_주관": 9111,
    "unic": 9112,
    "_읽": 9113,
    "_가수": 9114,
    "_positive": 9115,
    "_선발": 9116,
    "보험": 9117,
    "_display": 9118,
    "와의": 9119,
    "차가": 9120,
    "_전망이다.": 9121,
    "했을": 9122,
    "_통합": 9123,
    "_advert": 9124,
    "ude": 9125,
    "_결과를": 9126,
    "_삼성전": 9127,
    "_annual": 9128,
    "_움": 9129,
    "사,": 9130,
    "orary": 9131,
    "_필요하다고": 9132,
    "_여자": 9133,
    "_낙": 9134,
    "_꼭": 9135,
    "-do,": 9136,
    "_muse": 9137,
    "_launch": 9138,
    "_\"f": 9139,
    "_people.": 9140,
    "_disapp": 9141,
    "igence": 9142,
    "_participation": 9143,
    "_(3": 9144,
    "서에": 9145,
    "_league": 9146,
    "be": 9147,
    "_act,": 9148,
    "만큼": 9149,
    "_없습니다.": 9150,
    "_educational": 9151,
    "_접수": 9152,
    "평가": 9153,
    "_fig": 9154,
    "_issues": 9155,
    "트가": 9156,
    "_dong-": 9157,
    "_prevention": 9158,
    "_좌": 9159,
    "_시즌": 9160,
    "_abs": 9161,
    "_쉽게": 9162,
    "_법률": 9163,
    "호서": 9164,
    "ers'": 9165,
    "_형태": 9166,
    "_sch": 9167,
    "_같아요.": 9168,
    "_sout": 9169,
    "치고": 9170,
    "_certific": 9171,
    "포츠": 9172,
    "_atmosp": 9173,
    "_direction": 9174,
    "_east": 9175,
    "_전환": 9176,
    "으로,": 9177,
    "_seek": 9178,
    "_heavy": 9179,
    "_한다고": 9180,
    "_(l": 9181,
    "icon": 9182,
    "_restr": 9183,
    "ape": 9184,
    "_september": 9185,
    "_worth": 9186,
    "노동": 9187,
    "_structure": 9188,
    "_others": 9189,
    "_2월": 9190,
    "스러": 9191,
    "_university,": 9192,
    "_showing": 9193,
    "_museum": 9194,
    "_조정": 9195,
    "_doesn't": 9196,
    "_points": 9197,
    "_모르": 9198,
    "성에": 9199,
    "_dead": 9200,
    "_province.": 9201,
    "_저녁": 9202,
    "_access": 9203,
    "어야": 9204,
    "_cell": 9205,
    "_발생한": 9206,
    "_대출": 9207,
    "_guide": 9208,
    "rant": 9209,
    "oid": 9210,
    "ure,": 9211,
    "_안에": 9212,
    "_quarter": 9213,
    "_comprehens": 9214,
    "_흥": 9215,
    "ought": 9216,
    "_office,": 9217,
    "_guard": 9218,
    "_향후": 9219,
    "_serious": 9220,
    "_90": 9221,
    "_true": 9222,
    "_과학": 9223,
    "리그": 9224,
    "관의": 9225,
    "_화재": 9226,
    "_걱": 9227,
    "전이": 9228,
    "itution": 9229,
    "_내부": 9230,
    "_비롯해": 9231,
    "_lun": 9232,
    "_rapid": 9233,
    "s,\"": 9234,
    "_standards": 9235,
    "_changes": 9236,
    "_사유": 9237,
    "_resear": 9238,
    "_기억": 9239,
    "어를": 9240,
    "이오": 9241,
    "_도는": 9242,
    "_denuclearization": 9243,
    "_northern": 9244,
    "_광고": 9245,
    "_learn": 9246,
    "_proces": 9247,
    "ropri": 9248,
    "_\"t": 9249,
    "_페이": 9250,
    "_\"w": 9251,
    "-time": 9252,
    "_documents": 9253,
    "_mention": 9254,
    "_firm": 9255,
    "행정": 9256,
    "_fourth": 9257,
    "40": 9258,
    "pa": 9259,
    "_미세먼": 9260,
    "-related": 9261,
    "_거주": 9262,
    "_여름": 9263,
    "관광": 9264,
    "_잇": 9265,
    "_결혼": 9266,
    "9년": 9267,
    "ublic": 9268,
    "_volunte": 9269,
    "_정보를": 9270,
    "ha": 9271,
    "니다": 9272,
    "room": 9273,
    "_adjust": 9274,
    "_이루어": 9275,
    "투자": 9276,
    "_costs": 9277,
    "_찬": 9278,
    "_behind": 9279,
    "quent": 9280,
    "가지": 9281,
    "_despite": 9282,
    "ender": 9283,
    "_맞아": 9284,
    "한테": 9285,
    "_소재": 9286,
    "_활동을": 9287,
    "_opportunity": 9288,
    "_확산": 9289,
    "_아침": 9290,
    "_듯": 9291,
    "_입장": 9292,
    "_전기": 9293,
    "대한": 9294,
    "_주세요.": 9295,
    "상의": 9296,
    "_gap": 9297,
    "_모습이": 9298,
    "일이": 9299,
    "예술": 9300,
    "_빌": 9301,
    "기준": 9302,
    "irt": 9303,
    "_규정에": 9304,
    "_존재": 9305,
    "_doing": 9306,
    "결과": 9307,
    "ulated": 9308,
    "리지": 9309,
    "_프로젝": 9310,
    "_제품을": 9311,
    "_예약": 9312,
    "cr": 9313,
    "_encour": 9314,
    "_\"if": 9315,
    "_실제로": 9316,
    "_적이": 9317,
    "_saw": 9318,
    "_unlike": 9319,
    "_fan": 9320,
    "_drawing": 9321,
    "_거예요.": 9322,
    "hol": 9323,
    "_oh": 9324,
    "_대통령의": 9325,
    "_entire": 9326,
    "_disabl": 9327,
    "_wanted": 9328,
    "비가": 9329,
    "_matter": 9330,
    "_아동": 9331,
    "구의": 9332,
    "스의": 9333,
    "_최소": 9334,
    "_interp": 9335,
    "_보도했다.": 9336,
    "반기": 9337,
    "_도움이": 9338,
    "_organized": 9339,
    "_스스로": 9340,
    "_fast": 9341,
    "_자유한국당": 9342,
    "_coming": 9343,
    "_\"g": 9344,
    "iversary": 9345,
    "_exerc": 9346,
    "_것에": 9347,
    "_needed": 9348,
    "_might": 9349,
    "_groups": 9350,
    "_charges": 9351,
    "_북미": 9352,
    "_all,": 9353,
    "_잘못": 9354,
    "cheong": 9355,
    "_estim": 9356,
    "_strengthen": 9357,
    "_언급": 9358,
    "_보조": 9359,
    "_loss": 9360,
    "_prize": 9361,
    "진이": 9362,
    "_again.": 9363,
    "orm": 9364,
    "도,": 9365,
    "롯데": 9366,
    "_미국의": 9367,
    "_복지": 9368,
    "_pyeong": 9369,
    "_나선": 9370,
    "_tal": 9371,
    "_companies,": 9372,
    "_채용": 9373,
    "_felt": 9374,
    "_jung-gu": 9375,
    "_plat": 9376,
    "_submitted": 9377,
    "_contest": 9378,
    "care": 9379,
    "하는데": 9380,
    "장애": 9381,
    "_있으며": 9382,
    "ches": 9383,
    "_변호": 9384,
    "_2년": 9385,
    "_그녀는": 9386,
    "님이": 9387,
    "리의": 9388,
    "hood": 9389,
    "_3일": 9390,
    "_petition": 9391,
    "_앞두고": 9392,
    "_혐의로": 9393,
    "over": 9394,
    "_school,": 9395,
    "_sense": 9396,
    "_required": 9397,
    "_발언": 9398,
    "_완료": 9399,
    "_anniversary": 9400,
    "_bi": 9401,
    "_움직": 9402,
    "oud": 9403,
    "_없었": 9404,
    "_신규": 9405,
    "_'201": 9406,
    "ners": 9407,
    "_wife": 9408,
    "_programs": 9409,
    "_determined": 9410,
    "_assault": 9411,
    "보는": 9412,
    "했고": 9413,
    "rency": 9414,
    "_1일": 9415,
    "_출시": 9416,
    "_medium-sized": 9417,
    "_받았다.": 9418,
    "_temperature": 9419,
    "_concerns": 9420,
    "단의": 9421,
    "-level": 9422,
    "_market.": 9423,
    "_봐": 9424,
    "실을": 9425,
    "_government,": 9426,
    "_dism": 9427,
    "sq": 9428,
    "_equipment": 9429,
    "상에": 9430,
    "_달러": 9431,
    "_명이": 9432,
    "자에": 9433,
    "_finance": 9434,
    "_이유로": 9435,
    "광역시": 9436,
    "_details": 9437,
    "ires": 9438,
    "_기여": 9439,
    "_cat": 9440,
    "건이": 9441,
    "_accounting": 9442,
    "_금액": 9443,
    "주민": 9444,
    "_줄어": 9445,
    "_immediately": 9446,
    "-sc": 9447,
    "ivery": 9448,
    "_build": 9449,
    "_raise": 9450,
    "_seung-": 9451,
    "_가입": 9452,
    "jong": 9453,
    "_항상": 9454,
    "ians": 9455,
    "yle": 9456,
    "_역사": 9457,
    "_활성화": 9458,
    "_motor": 9459,
    "_parties": 9460,
    "_require": 9461,
    "_2017년": 9462,
    "ordin": 9463,
    "이크": 9464,
    "민주당": 9465,
    "_공부": 9466,
    "_china,": 9467,
    "_거의": 9468,
    "_caught": 9469,
    "_util": 9470,
    "_rail": 9471,
    "_데이터": 9472,
    "반도": 9473,
    "_구청장이": 9474,
    "_중에서": 9475,
    "_collection": 9476,
    "_specific": 9477,
    "_citizen": 9478,
    "_launched": 9479,
    "수는": 9480,
    "_search": 9481,
    "_independence": 9482,
    "_경우가": 9483,
    "_ordered": 9484,
    "스럽": 9485,
    "_december": 9486,
    "_원내": 9487,
    "_innovation": 9488,
    "_bag": 9489,
    "_웃": 9490,
    "_논란이": 9491,
    "_easily": 9492,
    "_researcher": 9493,
    "day.": 9494,
    "_\"a": 9495,
    "_parts": 9496,
    "lom": 9497,
    "_object": 9498,
    "_민주당": 9499,
    "_wide": 9500,
    "일(현지": 9501,
    "_obs": 9502,
    "-2": 9503,
    "서울": 9504,
    "_어제": 9505,
    "_여전히": 9506,
    "_서울시": 9507,
    "_ban": 9508,
    "_좋겠": 9509,
    "_동시에": 9510,
    "_message": 9511,
    "_issued": 9512,
    "_위해서는": 9513,
    "_sour": 9514,
    "_implementation": 9515,
    "_부과": 9516,
    "_dig": 9517,
    "ograph": 9518,
    "해주": 9519,
    "_헌": 9520,
    "했다\"고": 9521,
    "_갔": 9522,
    "_나의": 9523,
    "진흥": 9524,
    "endent": 9525,
    "_chan": 9526,
    "_독립": 9527,
    "_typ": 9528,
    "_intention": 9529,
    "_shopping": 9530,
    "_ens": 9531,
    "_atmosphere": 9532,
    "_efficient": 9533,
    "분을": 9534,
    "_driving": 9535,
    "_괜": 9536,
    "comm": 9537,
    "_attack": 9538,
    "_특징": 9539,
    "_added": 9540,
    "_서류": 9541,
    "금융": 9542,
    "_delivery": 9543,
    "_lotte": 9544,
    "_assess": 9545,
    "_below": 9546,
    "_젊은": 9547,
    "자들은": 9548,
    "_ment": 9549,
    "_도와": 9550,
    "gn": 9551,
    "reed": 9552,
    "yeon,": 9553,
    "_작업": 9554,
    "_leav": 9555,
    "_resources": 9556,
    "_봤": 9557,
    "_체결": 9558,
    "_mass": 9559,
    "_통한": 9560,
    "_서비스를": 9561,
    "_join": 9562,
    "하기도": 9563,
    "gent": 9564,
    "_pan": 9565,
    "_reduction": 9566,
    "_jeoll": 9567,
    "_있어.": 9568,
    "light": 9569,
    "_스마트폰": 9570,
    "_의원이": 9571,
    "_users": 9572,
    "_화장": 9573,
    "_장애인": 9574,
    "_series": 9575,
    "_ability": 9576,
    "_swe": 9577,
    "_participating": 9578,
    "_고민": 9579,
    "정에": 9580,
    "_규칙": 9581,
    "_그림": 9582,
    "_log": 9583,
    "_2015년": 9584,
    "_비핵화": 9585,
    "_반응": 9586,
    "_업계": 9587,
    "s'": 9588,
    "_factor": 9589,
    "_남아": 9590,
    "_경남": 9591,
    "_(k": 9592,
    "원,": 9593,
    "_harm": 9594,
    "_오래": 9595,
    "_industry,": 9596,
    "_yester": 9597,
    "a)": 9598,
    "_box": 9599,
    "_5일": 9600,
    "_eight": 9601,
    "_company,": 9602,
    "_deemed": 9603,
    "_주차": 9604,
    "_dog": 9605,
    "_변화": 9606,
    "_36": 9607,
    "_pressure": 9608,
    "_뜨": 9609,
    "_전반": 9610,
    "_patients": 9611,
    "_score": 9612,
    "_pension": 9613,
    "_하며,": 9614,
    "_바라": 9615,
    "_judic": 9616,
    "_intell": 9617,
    "paragraph": 9618,
    "_act.": 9619,
    "_remark": 9620,
    "won,": 9621,
    "_recruit": 9622,
    "_갈등": 9623,
    "%로": 9624,
    "_위원장은": 9625,
    "au": 9626,
    "_children's": 9627,
    "_weather": 9628,
    "_subparagraph": 9629,
    "_불구": 9630,
    "_produced": 9631,
    "_item": 9632,
    "_long-": 9633,
    "발전": 9634,
    "_옷": 9635,
    "_strategy": 9636,
    "_town": 9637,
    "본부": 9638,
    "_cooper": 9639,
    "기와": 9640,
    "down": 9641,
    "_그래서": 9642,
    "_제1항에": 9643,
    "_포함한": 9644,
    "_딸": 9645,
    "_약속": 9646,
    "_제4": 9647,
    "_transact": 9648,
    "vere": 9649,
    "_프랑": 9650,
    "_롯데": 9651,
    "_sens": 9652,
    "선거": 9653,
    "_cook": 9654,
    "_캠": 9655,
    "_오른": 9656,
    "_사전": 9657,
    "_violence": 9658,
    "_비롯한": 9659,
    "_말을": 9660,
    "_유통": 9661,
    "er's": 9662,
    "_등장": 9663,
    "_의원은": 9664,
    "_eun": 9665,
    "대학교": 9666,
    "_wall": 9667,
    "_남자": 9668,
    "_proceed": 9669,
    "_외교": 9670,
    "_raising": 9671,
    "_ul": 9672,
    "_warm": 9673,
    "_같아.": 9674,
    "_보다": 9675,
    "jeon": 9676,
    "_곧": 9677,
    "_영국": 9678,
    "률이": 9679,
    "isions": 9680,
    "위는": 9681,
    "_민주": 9682,
    "%를": 9683,
    "_gradu": 9684,
    "_전자": 9685,
    "구역": 9686,
    "진을": 9687,
    "_link": 9688,
    "_sud": 9689,
    "_해서": 9690,
    "인으로": 9691,
    "_places": 9692,
    "_platform": 9693,
    "_beginning": 9694,
    "_많다.": 9695,
    "_나와": 9696,
    "_펼쳐": 9697,
    "_init": 9698,
    "_tried": 9699,
    "멤버": 9700,
    "_장기": 9701,
    "_인한": 9702,
    "_universities": 9703,
    "_itself": 9704,
    "_요즘": 9705,
    "_괜찮": 9706,
    "_cam": 9707,
    "_국방": 9708,
    "_area,": 9709,
    "_commissioned": 9710,
    "_november": 9711,
    "_sleep": 9712,
    "경기": 9713,
    "_mal": 9714,
    "_원하는": 9715,
    "2,": 9716,
    "_internal": 9717,
    "_world's": 9718,
    "_vehicles": 9719,
    "_디자인": 9720,
    "_speed": 9721,
    "마을": 9722,
    "_예산의": 9723,
    "_없을": 9724,
    "_토론": 9725,
    "_that,": 9726,
    "_이끌": 9727,
    "_이사": 9728,
    "_한번": 9729,
    "_expans": 9730,
    "전문": 9731,
    "_참석한": 9732,
    "ulate": 9733,
    "_사람은": 9734,
    "_everyone": 9735,
    "_entered": 9736,
    "omp": 9737,
    "_questions": 9738,
    "_결국": 9739,
    "_neigh": 9740,
    "_이것은": 9741,
    "_싶습니다.": 9742,
    "7년": 9743,
    "드립니다.": 9744,
    "·군": 9745,
    "_심사": 9746,
    "_싸": 9747,
    "_pers": 9748,
    "_failed": 9749,
    "_poll": 9750,
    "널드": 9751,
    "_command": 9752,
    "_followed": 9753,
    "_image": 9754,
    "_꼽": 9755,
    "_제재": 9756,
    "_제도": 9757,
    "_conv": 9758,
    "_exclud": 9759,
    "문이": 9760,
    "_appeared": 9761,
    "_reach": 9762,
    "_ko": 9763,
    "_introduce": 9764,
    "_ahn": 9765,
    "_separate": 9766,
    "_지원할": 9767,
    "_보는": 9768,
    "_occurred": 9769,
    "_넘는": 9770,
    "'로": 9771,
    "_lives": 9772,
    "_관객": 9773,
    "_highly": 9774,
    "_밖": 9775,
    "_이들이": 9776,
    "_끊": 9777,
    "_센터": 9778,
    "_release": 9779,
    "_them,": 9780,
    "_section": 9781,
    "정한": 9782,
    "_기업이": 9783,
    "청은": 9784,
    "_장소": 9785,
    "_a.m.": 9786,
    "_관람": 9787,
    "_통과": 9788,
    "_advant": 9789,
    "_의한": 9790,
    "디오": 9791,
    "_evidence": 9792,
    "_hur": 9793,
    "_suit": 9794,
    "-hyun": 9795,
    "_솔": 9796,
    "_10일": 9797,
    "_자기": 9798,
    "atively": 9799,
    "_phil": 9800,
    "ixed": 9801,
    "_river": 9802,
    "_궁금": 9803,
    "%가": 9804,
    "_comprehensive": 9805,
    "_같다.": 9806,
    "_especially": 9807,
    "hy": 9808,
    "_there's": 9809,
    "_지지": 9810,
    "_자녀": 9811,
    "_차례": 9812,
    "-ri": 9813,
    "_webs": 9814,
    "원과": 9815,
    "_얼굴": 9816,
    "격을": 9817,
    "_baek": 9818,
    "_comfort": 9819,
    "_above": 9820,
    "_rad": 9821,
    "_circum": 9822,
    "_혜": 9823,
    "_assist": 9824,
    "_argu": 9825,
    "_out.": 9826,
    "_exchang": 9827,
    "_주는": 9828,
    "-min": 9829,
    "_cases,": 9830,
    "_fa": 9831,
    "_indic": 9832,
    "_consider": 9833,
    "_술": 9834,
    "_arts": 9835,
    "_county": 9836,
    "_그렇게": 9837,
    "_타고": 9838,
    "_donald": 9839,
    "_특별한": 9840,
    "체육": 9841,
    "로는": 9842,
    "_shar": 9843,
    "_위해서": 9844,
    "_달라": 9845,
    "_잃": 9846,
    "_scheduled": 9847,
    "_되었": 9848,
    "_소통": 9849,
    "_creating": 9850,
    "_gather": 9851,
    "르고": 9852,
    "_없다는": 9853,
    "isd": 9854,
    "ibility": 9855,
    "심을": 9856,
    "단은": 9857,
    "_명의": 9858,
    "_statement": 9859,
    "_멤버": 9860,
    "_사진을": 9861,
    "_skin": 9862,
    "_재정": 9863,
    "대책": 9864,
    "_sudden": 9865,
    "_쉬": 9866,
    "_벌어": 9867,
    "_열리는": 9868,
    "겠다는": 9869,
    "_대체": 9870,
    "ume": 9871,
    "_discl": 9872,
    "다'": 9873,
    "_가능하다.": 9874,
    "_judge": 9875,
    "_governments": 9876,
    "_members,": 9877,
    "_whole": 9878,
    "_lecture": 9879,
    "_때는": 9880,
    "_education,": 9881,
    "_satis": 9882,
    "_american": 9883,
    "_electronic": 9884,
    "_융": 9885,
    "_examination": 9886,
    "_conflict": 9887,
    "_sung": 9888,
    "금의": 9889,
    "·미": 9890,
    "_곳이": 9891,
    "_hear": 9892,
    "-old": 9893,
    "_across": 9894,
    "_헤": 9895,
    "_degre": 9896,
    "ley": 9897,
    "_days.": 9898,
    "aign": 9899,
    "_덧": 9900,
    "_wrong": 9901,
    "·1": 9902,
    "ia.": 9903,
    "_도널드": 9904,
    "_visiting": 9905,
    "_tit": 9906,
    "_지적했다.": 9907,
    "_나섰다.": 9908,
    "_this,": 9909,
    "_filed": 9910,
    "_이유는": 9911,
    "_brother": 9912,
    "_자주": 9913,
    "_cry": 9914,
    "_ki": 9915,
    "_대한민국": 9916,
    "_summer": 9917,
    "_sns": 9918,
    "ob": 9919,
    "isory": 9920,
    "_taste": 9921,
    "_decree": 9922,
    "_fee": 9923,
    "보다는": 9924,
    "_범죄": 9925,
    "_아마": 9926,
    "dr": 9927,
    "_whose": 9928,
    "_schol": 9929,
    "_mach": 9930,
    "ane": 9931,
    "ware": 9932,
    "_나가": 9933,
    "_campaign": 9934,
    "다운": 9935,
    "_falling": 9936,
    "_내놓": 9937,
    "_drama": 9938,
    "_nature": 9939,
    "_duty": 9940,
    "_regulation": 9941,
    "_anti": 9942,
    "_participants": 9943,
    "협력": 9944,
    "_아주": 9945,
    "_무료": 9946,
    "_조치": 9947,
    "_medic": 9948,
    "_teams": 9949,
    "_chall": 9950,
    "_주로": 9951,
    "_7일": 9952,
    "_intends": 9953,
    "_배송": 9954,
    "_schedule": 9955,
    "_secure": 9956,
    "_work.": 9957,
    "_고양": 9958,
    "_김정은": 9959,
    "_protest": 9960,
    "_비슷": 9961,
    "_hands": 9962,
    "_범위에서": 9963,
    "_위원장이": 9964,
    "_spot": 9965,
    "길을": 9966,
    "_수밖에": 9967,
    "_인간": 9968,
    "프로": 9969,
    "(3": 9970,
    "_축구": 9971,
    "pped": 9972,
    "_ec": 9973,
    "_unique": 9974,
    "_declar": 9975,
    "서관": 9976,
    "_빨리": 9977,
    "_proposal": 9978,
    "istered": 9979,
    "_창출": 9980,
    "_fight": 9981,
    "일(현지시간)": 9982,
    "_1,000": 9983,
    "_197": 9984,
    "_중단": 9985,
    "_enh": 9986,
    "_circumst": 9987,
    "_5g": 9988,
    "_library": 9989,
    "en,": 9990,
    "대학": 9991,
    "-soo": 9992,
    "intendent": 9993,
    "_졸": 9994,
    "_가정": 9995,
    "_interpret": 9996,
    "-scale": 9997,
    "도에": 9998,
    "식의": 9999,
    "인과": 10000,
    "_i'd": 10001,
    "_보건": 10002,
    "_중에": 10003,
    "으로는": 10004,
    "_집에": 10005,
    "_학생들이": 10006,
    "_entrance": 10007,
    "_variety": 10008,
    "한다\"고": 10009,
    "과학": 10010,
    "_상황이": 10011,
    "안에": 10012,
    "_sung-": 10013,
    "_party's": 10014,
    "주가": 10015,
    "_메시": 10016,
    "_basis": 10017,
    "5년": 10018,
    "_discount": 10019,
    "ech": 10020,
    "_normal": 10021,
    "_someone": 10022,
    "_usually": 10023,
    "seong": 10024,
    "_내용이": 10025,
    "_우리의": 10026,
    "셔서": 10027,
    "_150": 10028,
    "band": 10029,
    "_comes": 10030,
    "500": 10031,
    "_session": 10032,
    "_안내": 10033,
    "보호": 10034,
    "_installed": 10035,
    "_\"k": 10036,
    "_convenience": 10037,
    "_coff": 10038,
    "_우려가": 10039,
    "_33": 10040,
    "_investigating": 10041,
    "_kim's": 10042,
    "_depos": 10043,
    "_더불어민주당": 10044,
    "_theme": 10045,
    "ivered": 10046,
    "_won.": 10047,
    "_긍": 10048,
    "iding": 10049,
    "_해도": 10050,
    "_goods": 10051,
    "_접근": 10052,
    "_\"there": 10053,
    "itting": 10054,
    "_criticism": 10055,
    "항공": 10056,
    "1,": 10057,
    "athe": 10058,
    "_difference": 10059,
    "_주최": 10060,
    "_덕": 10061,
    "_blood": 10062,
    "_입장을": 10063,
    "_도민": 10064,
    "_no.": 10065,
    "연합": 10066,
    "_life.": 10067,
    "standing": 10068,
    "_qual": 10069,
    "부와": 10070,
    "_한다\"고": 10071,
    "sy": 10072,
    "만이": 10073,
    "어가": 10074,
    "ledge": 10075,
    "_event,": 10076,
    "_delivered": 10077,
    "선이": 10078,
    "_consumers": 10079,
    "_agreed": 10080,
    "_조례는": 10081,
    "reg": 10082,
    "사에서": 10083,
    "_따로": 10084,
    "겼다.": 10085,
    "_rob": 10086,
    "_york": 10087,
    "_comput": 10088,
    "명,": 10089,
    "_ai": 10090,
    "_correct": 10091,
    "_intelligence": 10092,
    "_turned": 10093,
    "_관련된": 10094,
    "atched": 10095,
    "_solve": 10096,
    "_같습니다.": 10097,
    "_좋아하는": 10098,
    "_reading": 10099,
    "_creation": 10100,
    "_criminal": 10101,
    "드가": 10102,
    "_학습": 10103,
    "_옮": 10104,
    "_elderly": 10105,
    "_청구": 10106,
    "_남성": 10107,
    "_겁": 10108,
    "_singer": 10109,
    "_돈을": 10110,
    "_feat": 10111,
    "_wait": 10112,
    "_cars": 10113,
    "_hearing": 10114,
    "_solution": 10115,
    "_reduced": 10116,
    "_출석": 10117,
    "_엔": 10118,
    "지와": 10119,
    "_coast": 10120,
    "\"라고": 10121,
    "jeong": 10122,
    "_talks": 10123,
    "_홍콩": 10124,
    "_비중": 10125,
    "_expansion": 10126,
    "seon": 10127,
    "_authority": 10128,
    "_physical": 10129,
    "_din": 10130,
    "_publ": 10131,
    "_마무": 10132,
    "_컴": 10133,
    "_덧붙": 10134,
    "_이들": 10135,
    "물의": 10136,
    "거운": 10137,
    "_경찰이": 10138,
    "_couldn't": 10139,
    "de": 10140,
    "_것과": 10141,
    "쳤다.": 10142,
    "_우승": 10143,
    "_축제": 10144,
    "_sam": 10145,
    "_securities": 10146,
    "랫폼": 10147,
    "_sanctions": 10148,
    "na": 10149,
    "_champ": 10150,
    "_newly": 10151,
    "most": 10152,
    "_negotiations": 10153,
    "_시절": 10154,
    "_넓": 10155,
    "_선고": 10156,
    "_대회": 10157,
    "_모여": 10158,
    "_투입": 10159,
    "_worked": 10160,
    "_ess": 10161,
    "_원내대표": 10162,
    "tle": 10163,
    "문에": 10164,
    "리기": 10165,
    "_bul": 10166,
    "_맥": 10167,
    "_사실이": 10168,
    "_entertainment": 10169,
    "_hair": 10170,
    "_fisher": 10171,
    "씨의": 10172,
    "서가": 10173,
    "_죄송": 10174,
    "_주장했다.": 10175,
    "·중": 10176,
    "_32": 10177,
    "_단계": 10178,
    "_writ": 10179,
    "_korea-": 10180,
    "시스템": 10181,
    "_경북": 10182,
    "_관광객": 10183,
    "_배경": 10184,
    "_wed": 10185,
    "_overall": 10186,
    "_2020": 10187,
    "_gun": 10188,
    "_긍정": 10189,
    "_daughter": 10190,
    "_3년": 10191,
    "_detect": 10192,
    "_obtain": 10193,
    "_mis": 10194,
    "da": 10195,
    "_together.": 10196,
    "asing": 10197,
    "_centers": 10198,
    "_requested": 10199,
    "_이번에": 10200,
    "_벗": 10201,
    "_registr": 10202,
    "_responsibility": 10203,
    "_얘기": 10204,
    "_meal": 10205,
    "_부정": 10206,
    "_federation": 10207,
    "다\"는": 10208,
    "_하기": 10209,
    "_주도": 10210,
    "_지켜": 10211,
    "_continuous": 10212,
    "_team,": 10213,
    "umb": 10214,
    "_occup": 10215,
    "izes": 10216,
    "세대": 10217,
    "_flight": 10218,
    "_world.": 10219,
    "만의": 10220,
    "_블록": 10221,
    "_sil": 10222,
    "부모": 10223,
    "_giving": 10224,
    "_너는": 10225,
    "_둘러": 10226,
    "_website": 10227,
    "_start-up": 10228,
    "권이": 10229,
    "_염": 10230,
    "_늘어나": 10231,
    "orter": 10232,
    "_china's": 10233,
    "_calc": 10234,
    "_국회의": 10235,
    "_posted": 10236,
    "_선생": 10237,
    "내는": 10238,
    "_superintendent": 10239,
    "_겨울": 10240,
    "-friend": 10241,
    "_버스": 10242,
    "_ever": 10243,
    "_repe": 10244,
    "erve": 10245,
    "_first,": 10246,
    "_ensure": 10247,
    "_20일": 10248,
    "_spok": 10249,
    "_lawy": 10250,
    "_amid": 10251,
    "_involved": 10252,
    "_facilities,": 10253,
    "_처음으로": 10254,
    "_hom": 10255,
    "iconduct": 10256,
    "_weak": 10257,
    "이며": 10258,
    "_섬": 10259,
    "_최저임금": 10260,
    "_dri": 10261,
    "lia": 10262,
    "_sharing": 10263,
    "_ine": 10264,
    "_않도록": 10265,
    "분의": 10266,
    "_판결": 10267,
    "-year-old": 10268,
    "_voice": 10269,
    "_amb": 10270,
    "_chungcheong": 10271,
    "아가": 10272,
    "_회원": 10273,
    "_하나에": 10274,
    "_공모": 10275,
    "_modern": 10276,
    "ropriate": 10277,
    "_providing": 10278,
    "_future.": 10279,
    "_옆": 10280,
    "_점에서": 10281,
    "_대화": 10282,
    "_societ": 10283,
    "산을": 10284,
    "_에너지": 10285,
    "_practice": 10286,
    "정상": 10287,
    "_주말": 10288,
    "_spir": 10289,
    "_consumer": 10290,
    "_elig": 10291,
    "_들어가": 10292,
    "_households": 10293,
    "_cross": 10294,
    "_co.": 10295,
    "_cop": 10296,
    "_pick": 10297,
    "ably": 10298,
    "_proposed": 10299,
    "_영업": 10300,
    "_있는지": 10301,
    "_추정": 10302,
    "ho": 10303,
    "ices,": 10304,
    "60": 10305,
    "오는": 10306,
    "하겠습니다.": 10307,
    "_achieve": 10308,
    "_passeng": 10309,
    "_미리": 10310,
    "_user": 10311,
    "fect": 10312,
    "-sh": 10313,
    "_semiconduct": 10314,
    "_30일": 10315,
    "_한국에": 10316,
    "met": 10317,
    "_prosecutors": 10318,
    "_you're": 10319,
    "명으로": 10320,
    "_prosecutor": 10321,
    "_audience": 10322,
    "_배출": 10323,
    "_방안을": 10324,
    "-hoon": 10325,
    "_disabled": 10326,
    "'에서": 10327,
    "orth": 10328,
    "_impos": 10329,
    "_sharp": 10330,
    "_특정": 10331,
    "_compensation": 10332,
    "_(local": 10333,
    "면,": 10334,
    "대회": 10335,
    "_이재": 10336,
    "_지역의": 10337,
    "_엄마": 10338,
    "_통보": 10339,
    "idge": 10340,
    "_then,": 10341,
    "_않습니다.": 10342,
    "_notice": 10343,
    "감독": 10344,
    "_외부": 10345,
    "해도": 10346,
    "_owners": 10347,
    "_quickly": 10348,
    "_earlier": 10349,
    "가족": 10350,
    "에게는": 10351,
    "_recently,": 10352,
    "석이": 10353,
    "_high-": 10354,
    "_dance": 10355,
    "bit": 10356,
    "_그것은": 10357,
    "_하고,": 10358,
    "_효과가": 10359,
    "ship": 10360,
    "adium": 10361,
    "_아버": 10362,
    "'(": 10363,
    "_week.": 10364,
    "_15일": 10365,
    "_chance": 10366,
    "les,": 10367,
    "_이벤": 10368,
    "이자": 10369,
    "_reached": 10370,
    "_재미": 10371,
    "_concern": 10372,
    "_4일": 10373,
    "_population": 10374,
    "_jur": 10375,
    "_resolution": 10376,
    "_clot": 10377,
    "_마무리": 10378,
    "_거야.": 10379,
    "wide": 10380,
    "_victims": 10381,
    "_스트": 10382,
    "olution": 10383,
    "_tourist": 10384,
    "_기회를": 10385,
    "_punish": 10386,
    "athered": 10387,
    "_대표가": 10388,
    "_그대로": 10389,
    "ji": 10390,
    "_사는": 10391,
    "_school.": 10392,
    "_비행": 10393,
    "_느끼": 10394,
    "_38": 10395,
    "_competit": 10396,
    "_뉴욕": 10397,
    "_쏟": 10398,
    "리와": 10399,
    "-friendly": 10400,
    "_performances": 10401,
    "_하는데": 10402,
    "_쌓": 10403,
    "_카드": 10404,
    "_gathered": 10405,
    "_새로": 10406,
    "_회계": 10407,
    ")은": 10408,
    "_caf": 10409,
    "_(1),": 10410,
    "_becoming": 10411,
    "_exact": 10412,
    "_의해": 10413,
    "_소유": 10414,
    "_단순": 10415,
    "_겸": 10416,
    "_divers": 10417,
    "_eye": 10418,
    "_convers": 10419,
    "_푸": 10420,
    "_34": 10421,
    "_상대로": 10422,
    "_장면": 10423,
    "_hosted": 10424,
    "_한국에서": 10425,
    "_bott": 10426,
    "mine": 10427,
    "_theater": 10428,
    "_3,": 10429,
    "_1만": 10430,
    "_republic": 10431,
    "_thanks": 10432,
    "_실무": 10433,
    "iveness": 10434,
    "_북한이": 10435,
    "_장관": 10436,
    "_lic": 10437,
    "_망": 10438,
    "_affili": 10439,
    "_enterprises": 10440,
    "으니": 10441,
    "_탑": 10442,
    "_상황을": 10443,
    "unk": 10444,
    "yung": 10445,
    "_stadium": 10446,
    "_agencies": 10447,
    "isl": 10448,
    "_taxi": 10449,
    "_square": 10450,
    "_brief": 10451,
    "'라는": 10452,
    "_중이다.": 10453,
    "_bure": 10454,
    "_running": 10455,
    "개를": 10456,
    "_심각": 10457,
    "_pm": 10458,
    "조제1": 10459,
    "_lawmaker": 10460,
    "_교류": 10461,
    "_신뢰": 10462,
    "사무": 10463,
    "_themsel": 10464,
    "_company.": 10465,
    "_만드는": 10466,
    "_parlia": 10467,
    "_benefits": 10468,
    "_강력": 10469,
    "_consideration": 10470,
    "_그들은": 10471,
    "_shown": 10472,
    "_반도": 10473,
    "_발굴": 10474,
    "_바탕": 10475,
    "으로부터": 10476,
    "·운영": 10477,
    "_group,": 10478,
    "신청": 10479,
    "_actually": 10480,
    "_익": 10481,
    "_결제": 10482,
    "_aust": 10483,
    "ices.": 10484,
    "_visitors": 10485,
    "_intens": 10486,
    "_대전": 10487,
    "lines": 10488,
    "_연기": 10489,
    "_frequent": 10490,
    "_12일": 10491,
    "ternal": 10492,
    "화된": 10493,
    "_project,": 10494,
    "_시장은": 10495,
    "_preparing": 10496,
    "스코": 10497,
    "_severe": 10498,
    "_rules": 10499,
    "_address": 10500,
    "_맞는": 10501,
    "_훈련": 10502,
    "_4th": 10503,
    "게임": 10504,
    "_max": 10505,
    "_moved": 10506,
    "_등은": 10507,
    "_letter": 10508,
    "_기초": 10509,
    "_발표한": 10510,
    "시를": 10511,
    "_밖에": 10512,
    "_이야기를": 10513,
    "_있으면": 10514,
    "_입주": 10515,
    "_대규모": 10516,
    "대는": 10517,
    "_limited": 10518,
    "_subst": 10519,
    "_수업": 10520,
    "금은": 10521,
    "_here.": 10522,
    "제품": 10523,
    "_벤": 10524,
    "_연장": 10525,
    "_system.": 10526,
    "_wish": 10527,
    "_duties": 10528,
    "_vent": 10529,
    "_빼": 10530,
    "_advanced": 10531,
    "담당": 10532,
    "_registered": 10533,
    "aps": 10534,
    "onst": 10535,
    "_홈페이": 10536,
    "_difficulties": 10537,
    "학과": 10538,
    "_만족": 10539,
    "_프리": 10540,
    "_11일": 10541,
    "_manufacturing": 10542,
    "_회복": 10543,
    "_대법원": 10544,
    "_file": 10545,
    "_덧붙였다.": 10546,
    "_biggest": 10547,
    "_abroad": 10548,
    "_이란": 10549,
    "_(p": 10550,
    "_dang": 10551,
    "_2일": 10552,
    "되기": 10553,
    "_수도권": 10554,
    "'으로": 10555,
    "aka": 10556,
    "_signed": 10557,
    "_yu": 10558,
    "bum": 10559,
    "_warrant": 10560,
    "_못하고": 10561,
    "_knowledge": 10562,
    "_relatively": 10563,
    "_dy": 10564,
    "ooth": 10565,
    "_depending": 10566,
    "ror": 10567,
    "_끼": 10568,
    "_비상": 10569,
    "되,": 10570,
    "린다.": 10571,
    "위로": 10572,
    "_selection": 10573,
    "_hee": 10574,
    "_끝나": 10575,
    "itude": 10576,
    "_보수": 10577,
    "_revital": 10578,
    "_수탁": 10579,
    "어요?": 10580,
    "_통일": 10581,
    "_koreans": 10582,
    "_animal": 10583,
    "함으로써": 10584,
    "_불구하고": 10585,
    "_jung-": 10586,
    "_걱정": 10587,
    "_21st": 10588,
    "중앙": 10589,
    "_행동": 10590,
    "_sn": 10591,
    "_track": 10592,
    "_슬": 10593,
    "국제": 10594,
    "_adding": 10595,
    "_supporting": 10596,
    "_인터뷰": 10597,
    "공사": 10598,
    "_books": 10599,
    "_분명": 10600,
    "_시도": 10601,
    "_yeon": 10602,
    "_gift": 10603,
    "_꽃": 10604,
    "_2000": 10605,
    "_recommended": 10606,
    "협회": 10607,
    "_kwon": 10608,
    "_legisl": 10609,
    "_45": 10610,
    "_himself": 10611,
    "_talent": 10612,
    "_대표는": 10613,
    "estern": 10614,
    "_constitution": 10615,
    "히려": 10616,
    "_advantage": 10617,
    "_autonomous": 10618,
    "_정부는": 10619,
    "_ep": 10620,
    "ton": 10621,
    "화폐": 10622,
    "_lat": 10623,
    "-ho,": 10624,
    "였던": 10625,
    "_월드": 10626,
    "사들이": 10627,
    "_huge": 10628,
    "\"고": 10629,
    "_되면": 10630,
    "_업무를": 10631,
    "구에": 10632,
    "_회담": 10633,
    "_fost": 10634,
    "_pal": 10635,
    "역을": 10636,
    "_한반도": 10637,
    "_eyes": 10638,
    "_jour": 10639,
    "_careful": 10640,
    "_rural": 10641,
    "_보니": 10642,
    "_불가능": 10643,
    "_gender": 10644,
    "분기": 10645,
    "_플랫폼": 10646,
    "_사라": 10647,
    "_earth": 10648,
    "_proper": 10649,
    "_fle": 10650,
    "_rental": 10651,
    "_감독이": 10652,
    "_emot": 10653,
    "xic": 10654,
    "_있었던": 10655,
    "cont": 10656,
    "_국립": 10657,
    "_culture,": 10658,
    "_announcement": 10659,
    "_셈": 10660,
    "_점이": 10661,
    "미래": 10662,
    "심히": 10663,
    "_여론": 10664,
    "_수술": 10665,
    "_avoid": 10666,
    "ctv": 10667,
    "_threat": 10668,
    "_낸": 10669,
    "_includes": 10670,
    "_excess": 10671,
    "_꾸준": 10672,
    "인가요?": 10673,
    "_힘을": 10674,
    "_kong": 10675,
    "_슈": 10676,
    "_sale": 10677,
    "고를": 10678,
    "국은": 10679,
    "_dip": 10680,
    "_anything": 10681,
    "lymp": 10682,
    "_suspected": 10683,
    "_순간": 10684,
    "워크": 10685,
    "_patient": 10686,
    "_운영하는": 10687,
    "다'는": 10688,
    "_surpr": 10689,
    "\"이란": 10690,
    "_낮은": 10691,
    "_묻": 10692,
    "체인": 10693,
    "_혜택": 10694,
    "_tai": 10695,
    "_predicted": 10696,
    "_맞춰": 10697,
    "_14일": 10698,
    "ays": 10699,
    "_responsible": 10700,
    "_olymp": 10701,
    "_spirit": 10702,
    "6년": 10703,
    "_demonst": 10704,
    "_조치를": 10705,
    "iring": 10706,
    "_지금까지": 10707,
    "_프랑스": 10708,
    "_27일": 10709,
    "실에서": 10710,
    "주년": 10711,
    "냐는": 10712,
    "_pros": 10713,
    "_프로젝트": 10714,
    "_simple": 10715,
    "_놓고": 10716,
    "_bab": 10717,
    "림픽": 10718,
    "_heads": 10719,
    "_출발": 10720,
    "_동물": 10721,
    "_당연": 10722,
    "chang": 10723,
    "_disabilities": 10724,
    "_camer": 10725,
    "가의": 10726,
    "_사항은": 10727,
    "_refund": 10728,
    "_companies.": 10729,
    "_respective": 10730,
    "하신": 10731,
    "_소비자": 10732,
    "_jurisd": 10733,
    "_재난": 10734,
    "_goes": 10735,
    "관에서": 10736,
    "_연속": 10737,
    "_보이는": 10738,
    "_writing": 10739,
    "_것이에요.": 10740,
    "rought": 10741,
    "식품": 10742,
    "_dismiss": 10743,
    "_stores": 10744,
    "상은": 10745,
    "_자치": 10746,
    "_asset": 10747,
    "_반도체": 10748,
    "_멀": 10749,
    "의가": 10750,
    "resh": 10751,
    "_criticized": 10752,
    "_agend": 10753,
    "_찾는": 10754,
    "_이른": 10755,
    "_8일": 10756,
    "_service,": 10757,
    "_recognized": 10758,
    "_died": 10759,
    "처리": 10760,
    "_위치한": 10761,
    "격이": 10762,
    "ode": 10763,
    "gen": 10764,
    "_gener": 10765,
    "_위원은": 10766,
    "_공사": 10767,
    "적이고": 10768,
    "_consultation": 10769,
    "_2014년": 10770,
    "_mainten": 10771,
    "케팅": 10772,
    "_긴급": 10773,
    "_운영에": 10774,
    "_returned": 10775,
    "_만약": 10776,
    "하겠다\"고": 10777,
    "_scen": 10778,
    "_빅": 10779,
    "secut": 10780,
    "었어요.": 10781,
    "_arch": 10782,
    "_(s": 10783,
    "_국정": 10784,
    "_neighbor": 10785,
    "_정확한": 10786,
    "_땅": 10787,
    "-sik": 10788,
    "점에서": 10789,
    "_driver": 10790,
    "기,": 10791,
    "_certificate": 10792,
    "_houses": 10793,
    "_mission": 10794,
    "_concentr": 10795,
    "_오히려": 10796,
    "_comment": 10797,
    "_becomes": 10798,
    "므로": 10799,
    "_경찰에": 10800,
    "_words": 10801,
    "ances,": 10802,
    "uel": 10803,
    "_player": 10804,
    "_weekend": 10805,
    "_되지": 10806,
    "_자원": 10807,
    "학년": 10808,
    "법을": 10809,
    "_않다.": 10810,
    "기관의": 10811,
    "_winning": 10812,
    "형을": 10813,
    "_hye": 10814,
    "_싶어요.": 10815,
    "_ways": 10816,
    "a's": 10817,
    "iary": 10818,
    "랐다.": 10819,
    "_강한": 10820,
    "round": 10821,
    "temp": 10822,
    "하려는": 10823,
    "_fully": 10824,
    "_okay": 10825,
    "포르": 10826,
    "_임명": 10827,
    "_watching": 10828,
    "_신용": 10829,
    "_shot": 10830,
    "ament": 10831,
    "_restrict": 10832,
    "_냉": 10833,
    "_당신에게": 10834,
    "_인식": 10835,
    "_ticket": 10836,
    "하시": 10837,
    "_이와": 10838,
    "_검사": 10839,
    "_influence": 10840,
    "로서": 10841,
    "_수수": 10842,
    "_인기를": 10843,
    "ology": 10844,
    "_deliver": 10845,
    "_candidates": 10846,
    "_prescribe": 10847,
    "_kyung-": 10848,
    "_19일": 10849,
    "iar": 10850,
    "_사용할": 10851,
    "_pit": 10852,
    "_18일": 10853,
    "_사람을": 10854,
    "_문제는": 10855,
    "_nothing": 10856,
    "_가격이": 10857,
    "_hus": 10858,
    "to": 10859,
    "-si": 10860,
    "-gen": 10861,
    "_이상이": 10862,
    "_임대": 10863,
    "_urgent": 10864,
    "-based": 10865,
    "_했습니다.": 10866,
    "_published": 10867,
    "_consecut": 10868,
    "전쟁": 10869,
    "_사실상": 10870,
    "_provides": 10871,
    "_지자": 10872,
    "_해소": 10873,
    "_연계": 10874,
    "_coffee": 10875,
    "_introduction": 10876,
    "받고": 10877,
    "_currently,": 10878,
    "성은": 10879,
    "_painting": 10880,
    "_entrusted": 10881,
    "_검찰은": 10882,
    "_singap": 10883,
    "페인": 10884,
    "_diplom": 10885,
    "_notify": 10886,
    "호를": 10887,
    "_detailed": 10888,
    "arily": 10889,
    "_channel": 10890,
    "_농업": 10891,
    "ated.": 10892,
    "_주거": 10893,
    "상공": 10894,
    "_나누": 10895,
    "리로": 10896,
    "_노인": 10897,
    "_교체": 10898,
    "_규모의": 10899,
    "draw": 10900,
    "_arrested": 10901,
    "_center.": 10902,
    "ney": 10903,
    "_곡": 10904,
    "_밝혀": 10905,
    "_아시": 10906,
    "_52": 10907,
    "_모집": 10908,
    "_편의": 10909,
    "_sites": 10910,
    "_almost": 10911,
    "_제일": 10912,
    "_스포츠": 10913,
    "_inj": 10914,
    "_뭐": 10915,
    "_selling": 10916,
    "_belong": 10917,
    "_bought": 10918,
    "_extra": 10919,
    "_reportedly": 10920,
    "_예상된다.": 10921,
    "_원칙": 10922,
    "_european": 10923,
    "_forum": 10924,
    "_drop": 10925,
    "_exercise": 10926,
    "_conserv": 10927,
    "_ratio": 10928,
    "_long-term": 10929,
    "_정기": 10930,
    "ipped": 10931,
    "하겠다는": 10932,
    "_하여야": 10933,
    "_startup": 10934,
    "-jin": 10935,
    "_폐기": 10936,
    "_parliament": 10937,
    "han": 10938,
    "_suwon": 10939,
    "_kindergarten": 10940,
    "_자율": 10941,
    "_unc": 10942,
    "_37": 10943,
    "당한": 10944,
    "_standing": 10945,
    "지털": 10946,
    "_marine": 10947,
    "_참여하는": 10948,
    "_(2)": 10949,
    "_out,": 10950,
    "ju,": 10951,
    "_-": 10952,
    "행이": 10953,
    "께서": 10954,
    "_customer": 10955,
    "_eligible": 10956,
    "_옥": 10957,
    "_guarantee": 10958,
    "드시": 10959,
    "_snow": 10960,
    "_bare": 10961,
    "상으로": 10962,
    "_office.": 10963,
    "성장": 10964,
    "지사": 10965,
    "려면": 10966,
    "_external": 10967,
    "_determine": 10968,
    "_후에": 10969,
    "_cover": 10970,
    "으면서": 10971,
    "al,": 10972,
    "_surround": 10973,
    "_브라": 10974,
    "_증거": 10975,
    "_seoul.": 10976,
    "_나도": 10977,
    "_하나님": 10978,
    "_esc": 10979,
    "iled": 10980,
    "_(m": 10981,
    "_뇌": 10982,
    "_map": 10983,
    "_joseon": 10984,
    "용을": 10985,
    "_400": 10986,
    "_broadcasting": 10987,
    "9,": 10988,
    "_제5": 10989,
    "_remem": 10990,
    "갔다.": 10991,
    "\"이라며": 10992,
    "_designed": 10993,
    "_revision": 10994,
    "_judg": 10995,
    "_implemented": 10996,
    "_혼자": 10997,
    "ell": 10998,
    "_replace": 10999,
    "_expanding": 11000,
    "_bureau": 11001,
    "_전혀": 11002,
    "려는": 11003,
    "_방침이다.": 11004,
    "_effective": 11005,
    "자기": 11006,
    "_cctv": 11007,
    "_playing": 11008,
    "_최초로": 11009,
    "_수원": 11010,
    "어도": 11011,
    "_grade": 11012,
    "_성폭": 11013,
    "_origin": 11014,
    "_retire": 11015,
    "중에": 11016,
    "_피해를": 11017,
    "_mart": 11018,
    "_싱가": 11019,
    "_range": 11020,
    "_withdraw": 11021,
    "호가": 11022,
    "_28일": 11023,
    "_뒷": 11024,
    "_전남": 11025,
    "_근거": 11026,
    "프라": 11027,
    "_remo": 11028,
    "_여기에": 11029,
    "_resc": 11030,
    "_65": 11031,
    "_markets": 11032,
    "_nine": 11033,
    "메라": 11034,
    "_task": 11035,
    "_digital": 11036,
    "osure": 11037,
    "_discip": 11038,
    "니?": 11039,
    "_husband": 11040,
    "_surger": 11041,
    "chi": 11042,
    "_말이": 11043,
    "_allowed": 11044,
    "_specialized": 11045,
    "_매일": 11046,
    "_조례>": 11047,
    "_earn": 11048,
    "_independent": 11049,
    "ifi": 11050,
    "_area.": 11051,
    "_promoting": 11052,
    "_보장": 11053,
    "_오랜": 11054,
    "_커피": 11055,
    "_중국의": 11056,
    "_있지만,": 11057,
    "_위원회의": 11058,
    "_답변": 11059,
    "_rose": 11060,
    "igation": 11061,
    "_smooth": 11062,
    "_teachers": 11063,
    "_흘": 11064,
    "_west": 11065,
    "_samp": 11066,
    "_committee.": 11067,
    "_altern": 11068,
    "_하며": 11069,
    "_휴대": 11070,
    "_fort": 11071,
    "했는데": 11072,
    "_대북": 11073,
    "_declaration": 11074,
    "_waiting": 11075,
    "_ded": 11076,
    "_뮤": 11077,
    "time": 11078,
    "_mentioned": 11079,
    "_expectations": 11080,
    "우는": 11081,
    "_hw": 11082,
    "_사법": 11083,
    "_시장이": 11084,
    "_쏟아": 11085,
    "해를": 11086,
    "_brok": 11087,
    "시켜": 11088,
    "드릴": 11089,
    "_owner": 11090,
    "_사용하는": 11091,
    "_돕": 11092,
    "_hae": 11093,
    "_impress": 11094,
    "per": 11095,
    "_대변": 11096,
    "_says": 11097,
    "_popularity": 11098,
    "_investigate": 11099,
    "_settlement": 11100,
    "_incon": 11101,
    "_stressed": 11102,
    "_바란": 11103,
    "_열심히": 11104,
    "_negative": 11105,
    "_완성": 11106,
    "만을": 11107,
    "_전용": 11108,
    "_기회가": 11109,
    "_1차": 11110,
    "_6일": 11111,
    "_grant": 11112,
    "죠?": 11113,
    "_cash": 11114,
    "_여부를": 11115,
    "리카": 11116,
    "_관측": 11117,
    "_nar": 11118,
    "_smok": 11119,
    "위원회의": 11120,
    "_prison": 11121,
    "_joined": 11122,
    "_pyong": 11123,
    "_앉": 11124,
    "_premium": 11125,
    "_없다고": 11126,
    "_tourists": 11127,
    "_loans": 11128,
    "이드": 11129,
    "_늘어": 11130,
    "olf": 11131,
    "_kyung": 11132,
    "_representatives": 11133,
    "네시아": 11134,
    "_broke": 11135,
    "_미술": 11136,
    "_index": 11137,
    "_강원도": 11138,
    "_analyzed": 11139,
    "_moving": 11140,
    "_subway": 11141,
    "_부문": 11142,
    "_recon": 11143,
    "_중간": 11144,
    "_나에게": 11145,
    "_registration": 11146,
    "rec": 11147,
    "_노조": 11148,
    "구조": 11149,
    "_volunteer": 11150,
    "분에": 11151,
    "_담긴": 11152,
    "limin": 11153,
    "_바른": 11154,
    "_indones": 11155,
    "ugg": 11156,
    "목을": 11157,
    "_임시": 11158,
    "_의결": 11159,
    "_reports": 11160,
    "_kep": 11161,
    "에서의": 11162,
    "_singapore": 11163,
    "_russia": 11164,
    "_방식으로": 11165,
    "_paper": 11166,
    "_therefore": 11167,
    "_semiconductor": 11168,
    "_빛": 11169,
    "리한": 11170,
    "_마음을": 11171,
    "_mist": 11172,
    "_degrees": 11173,
    "_recorded": 11174,
    "_adm": 11175,
    "_주고": 11176,
    "세계": 11177,
    "_country,": 11178,
    "_나오는": 11179,
    "_측면": 11180,
    "_japan,": 11181,
    "_23일": 11182,
    "_country.": 11183,
    "_adop": 11184,
    "하세요.": 11185,
    "_reality": 11186,
    "_첨부": 11187,
    "조합": 11188,
    "_baseball": 11189,
    "_선물": 11190,
    "_생각이": 11191,
    "~1": 11192,
    "명과": 11193,
    "_이들은": 11194,
    "_woo": 11195,
    "운드": 11196,
    "해보": 11197,
    "_불과": 11198,
    "_25일": 11199,
    "_23rd": 11200,
    "_정하는": 11201,
    "_적극적으로": 11202,
    "'이라는": 11203,
    "_cool": 11204,
    "_겁니다.": 11205,
    "_(4": 11206,
    "able.": 11207,
    "_대기": 11208,
    "ux": 11209,
    "_southern": 11210,
    "_높다.": 11211,
    "_구민": 11212,
    "_diagn": 11213,
    "_주제로": 11214,
    "_multi": 11215,
    "_살펴": 11216,
    "자치단체": 11217,
    "_건가요?": 11218,
    "_것처럼": 11219,
    "_미국이": 11220,
    "_일어나": 11221,
    "_반드시": 11222,
    "_21일": 11223,
    "_clim": 11224,
    "_attention.": 11225,
    "_soft": 11226,
    "_shoot": 11227,
    "_conclud": 11228,
    "_herit": 11229,
    "_looks": 11230,
    "aces": 11231,
    "rugg": 11232,
    "_consecutive": 11233,
    "_전년": 11234,
    "_termin": 11235,
    "_gim": 11236,
    "_빠르게": 11237,
    "_액": 11238,
    "_지속적으로": 11239,
    "_door": 11240,
    "_inconven": 11241,
    "_past,": 11242,
    "_fif": 11243,
    "chain": 11244,
    "_champions": 11245,
    "-go": 11246,
    "_newsp": 11247,
    "_forced": 11248,
    "_도움을": 11249,
    "_9일": 11250,
    "병원": 11251,
    "_wonder": 11252,
    "_fresh": 11253,
    "ang,": 11254,
    "_바뀌": 11255,
    "_못하는": 11256,
    "심의": 11257,
    "_focused": 11258,
    "_improving": 11259,
    "_자료를": 11260,
    "_consump": 11261,
    "_career": 11262,
    "_인증": 11263,
    "회사": 11264,
    "_받지": 11265,
    "하다\"고": 11266,
    "oration": 11267,
    "_connection": 11268,
    "_13일": 11269,
    "_concept": 11270,
    "스에": 11271,
    "_twice": 11272,
    "il,": 11273,
    "_있을까요?": 11274,
    "_17일": 11275,
    "_location": 11276,
    "_프로그램을": 11277,
    "80": 11278,
    "_자리를": 11279,
    "_mas": 11280,
    "_반발": 11281,
    "_국무위원": 11282,
    "_album": 11283,
    "_26일": 11284,
    "_불안": 11285,
    "-hye": 11286,
    "_provisions": 11287,
    "_바탕으로": 11288,
    "이에": 11289,
    "_seem": 11290,
    "유치": 11291,
    "_kim,": 11292,
    "_fash": 11293,
    "-gun": 11294,
    "_serve": 11295,
    "_strugg": 11296,
    "_master": 11297,
    "질이": 11298,
    "_austral": 11299,
    "_throughout": 11300,
    "건설": 11301,
    "_idea": 11302,
    "3년": 11303,
    "_측은": 11304,
    "_콘서": 11305,
    "제는": 11306,
    "ming": 11307,
    "청이": 11308,
    "_rising": 11309,
    "_사태": 11310,
    "_인기": 11311,
    "_ordinary": 11312,
    "_prelimin": 11313,
    "_한국어": 11314,
    "_rates": 11315,
    "_accidents": 11316,
    "실이": 11317,
    "_앞에서": 11318,
    "aft": 11319,
    "_beauty": 11320,
    "았던": 11321,
    "스러운": 11322,
    "_유일": 11323,
    "공항": 11324,
    "_금지": 11325,
    "_의무": 11326,
    "_ceremon": 11327,
    "_ill": 11328,
    "_effects": 11329,
    "_조사를": 11330,
    "_finish": 11331,
    "_최고의": 11332,
    "방송": 11333,
    "_눈에": 11334,
    "iness": 11335,
    "같이": 11336,
    "_(d": 11337,
    "men": 11338,
    "_peninsula": 11339,
    "_싱가포르": 11340,
    "_평양": 11341,
    "_의사": 11342,
    "irae": 11343,
    "_주인": 11344,
    "_speech": 11345,
    "_anyone": 11346,
    "구는": 11347,
    "_surv": 11348,
    "_crow": 11349,
    "_루": 11350,
    "됐다고": 11351,
    "_라이": 11352,
    "_allows": 11353,
    "_counse": 11354,
    "_쇼핑": 11355,
    "_졸업": 11356,
    "_thinking": 11357,
    "_\"l": 11358,
    "(5": 11359,
    "_5년": 11360,
    "_rule": 11361,
    "_설계": 11362,
    "_전쟁": 11363,
    "_평소": 11364,
    "_없었다.": 11365,
    "_시각": 11366,
    "_22nd": 11367,
    "_etc.,": 11368,
    "_academic": 11369,
    "_부위원": 11370,
    "_주시": 11371,
    "_served": 11372,
    "이며,": 11373,
    "_integrated": 11374,
    "_him.": 11375,
    "_할인": 11376,
    "_effort": 11377,
    "_eating": 11378,
    "_모양": 11379,
    "니스": 11380,
    "_ath": 11381,
    "_kid": 11382,
    "_인도네시아": 11383,
    "_연간": 11384,
    "건의": 11385,
    "4년": 11386,
    "_solid": 11387,
    "_artists": 11388,
    "_mainly": 11389,
    "_forces": 11390,
    "_했어요.": 11391,
    "표를": 11392,
    "_22일": 11393,
    "_q": 11394,
    "_presented": 11395,
    "_figure": 11396,
    "_alleged": 11397,
    "_경험이": 11398,
    "경을": 11399,
    "다면,": 11400,
    "_mic": 11401,
    "_healthy": 11402,
    "_suffering": 11403,
    "로를": 11404,
    "_선언": 11405,
    "_hang": 11406,
    "_choice": 11407,
    "ittee": 11408,
    "_쿠": 11409,
    "자동차": 11410,
    "_균": 11411,
    "_무슨": 11412,
    "char": 11413,
    "ruption": 11414,
    "_ic": 11415,
    "aging": 11416,
    "_meeting,": 11417,
    "_형성": 11418,
    "공동": 11419,
    "_appointment": 11420,
    "수수": 11421,
    "_entering": 11422,
    "산물": 11423,
    "_causing": 11424,
    "들로": 11425,
    "_개혁": 11426,
    "_종류": 11427,
    "_차별": 11428,
    "바일": 11429,
    "_24일": 11430,
    ")과": 11431,
    "_집행": 11432,
    "_developing": 11433,
    "_everything": 11434,
    "ush": 11435,
    "_western": 11436,
    "_군사": 11437,
    "_days,": 11438,
    "_company's": 11439,
    "_planned": 11440,
    "cm": 11441,
    "_식품": 11442,
    "_가서": 11443,
    "_해석": 11444,
    "-chair": 11445,
    "해.": 11446,
    "_나를": 11447,
    "분야": 11448,
    "_다가": 11449,
    "_남편": 11450,
    "_페이스": 11451,
    "_그러나": 11452,
    "_폭염": 11453,
    "_bon": 11454,
    "_체육": 11455,
    "_북한의": 11456,
    "_fishing": 11457,
    "퓨터": 11458,
    "_전날": 11459,
    "공간": 11460,
    "_진술": 11461,
    "_boy": 11462,
    "주고": 11463,
    "_canad": 11464,
    "_때까지": 11465,
    "가고": 11466,
    "_scope": 11467,
    "_artist": 11468,
    "_monitor": 11469,
    "_lawsu": 11470,
    "겠다\"고": 11471,
    "_virt": 11472,
    "_이행": 11473,
    "_bridge": 11474,
    "나다": 11475,
    "_동일": 11476,
    "봉사": 11477,
    "력과": 11478,
    "_수는": 11479,
    "_benefit": 11480,
    "_medicine": 11481,
    "카드": 11482,
    "_신속": 11483,
    "_확실": 11484,
    "%에": 11485,
    "_완화": 11486,
    "_receipt": 11487,
    "_가득": 11488,
    "_공항": 11489,
    "aint": 11490,
    "_납부": 11491,
    "_records": 11492,
    "팀이": 11493,
    "_제출하여야": 11494,
    "_marri": 11495,
    "sh": 11496,
    "load": 11497,
    "_maintenance": 11498,
    "_suc": 11499,
    "_dramas": 11500,
    "_negotiation": 11501,
    "_unification": 11502,
    "_weight": 11503,
    "_iran": 11504,
    "_renew": 11505,
    "_당신을": 11506,
    "_judicial": 11507,
    "_clas": 11508,
    "_blockchain": 11509,
    "_daejeon": 11510,
    "내고": 11511,
    "_resign": 11512,
    "_killed": 11513,
    "_nearby": 11514,
    "_soccer": 11515,
    "fficient": 11516,
    "_자동": 11517,
    "ifying": 11518,
    "_pyongyang": 11519,
    "_사람의": 11520,
    "_adult": 11521,
    "_초과": 11522,
    "_mag": 11523,
    "_처벌": 11524,
    "체를": 11525,
    "_choose": 11526,
    "_불러": 11527,
    "_2013년": 11528,
    "_gar": 11529,
    "_ing": 11530,
    "_counseling": 11531,
    "스와": 11532,
    "_택시": 11533,
    "_생태": 11534,
    "_cos": 11535,
    "_suffered": 11536,
    "_일으": 11537,
    "uth": 11538,
    "이션": 11539,
    "겠다고": 11540,
    "방을": 11541,
    "보가": 11542,
    "_opt": 11543,
    "업무": 11544,
    "_focusing": 11545,
    "_오늘은": 11546,
    "_분양": 11547,
    "호의": 11548,
    "_되었다.": 11549,
    "_맺": 11550,
    "씨를": 11551,
    "율을": 11552,
    "(4": 11553,
    "_preliminary": 11554,
    "_discussion": 11555,
    "_셈이다.": 11556,
    "les.": 11557,
    "_reward": 11558,
    "_kill": 11559,
    "_촉구": 11560,
    "_의심": 11561,
    "해주세요.": 11562,
    "상황": 11563,
    "_investors": 11564,
    "_case,": 11565,
    "_교육을": 11566,
    "_band": 11567,
    "_exclus": 11568,
    "하려고": 11569,
    "_않으면": 11570,
    "_비가": 11571,
    "_베이": 11572,
    "점으로": 11573,
    "_articles": 11574,
    "_불이": 11575,
    "us,": 11576,
    "_대통령과": 11577,
    "함에": 11578,
    "ated,": 11579,
    "_기업의": 11580,
    "_cheon": 11581,
    "ol,": 11582,
    "_finished": 11583,
    "oms": 11584,
    "받는": 11585,
    "_association,": 11586,
    "alled": 11587,
    "nal": 11588,
    "_supported": 11589,
    "_대기업": 11590,
    "_쉽지": 11591,
    "5,": 11592,
    "_shared": 11593,
    "_accomp": 11594,
    "_industry.": 11595,
    "_작년": 11596,
    "_gard": 11597,
    "_brought": 11598,
[...]
